<pad>	0
<unk>	0
<s>	0
</s>	0
en	-0
er	-1
▁t	-2
in	-3
▁a	-4
▁d	-5
▁,	-6
▁w	-7
▁s	-8
ch	-9
▁th	-10
▁.	-11
▁i	-12
es	-13
nd	-14
▁m	-15
ie	-16
▁b	-17
at	-18
on	-19
▁h	-20
▁the	-21
▁g	-22
▁u	-23
as	-24
re	-25
▁e	-26
an	-27
▁o	-28
st	-29
▁f	-30
it	-31
ll	-32
▁n	-33
▁in	-34
▁&	-35
▁p	-36
ou	-37
ich	-38
or	-39
ar	-40
▁l	-41
ing	-42
▁c	-43
▁v	-44
os	-45
is	-46
▁and	-47
▁k	-48
ap	-49
te	-50
ot	-51
▁ein	-52
▁to	-53
▁und	-54
le	-55
ir	-56
al	-57
apos	-58
▁z	-59
▁be	-60
▁of	-61
▁die	-62
▁we	-63
om	-64
▁das	-65
ig	-66
ed	-67
▁y	-68
un	-69
ut	-70
ur	-71
et	-72
us	-73
qu	-74
ent	-75
▁that	-76
ion	-77
▁wir	-78
▁you	-79
▁ha	-80
▁sie	-81
▁so	-82
em	-83
▁wh	-84
ro	-85
el	-86
▁it	-87
ic	-88
▁der	-89
ra	-90
ere	-91
quot	-92
▁ich	-93
▁an	-94
▁di	-95
▁zu	-96
▁se	-97
▁j	-98
▁is	-99
hr	-100
▁ist	-101
ve	-102
▁es	-103
ten	-104
▁st	-105
il	-106
ow	-107
▁re	-108
de	-109
▁ver	-110
▁un	-111
ter	-112
am	-113
icht	-114
ber	-115
▁er	-116
ach	-117
gen	-118
ier	-119
lich	-120
ben	-121
ind	-122
ge	-123
▁was	-124
sch	-125
▁au	-126
▁al	-127
▁on	-128
▁me	-129
all	-130
ke	-131
▁dies	-132
▁this	-133
ol	-134
im	-135
▁r	-136
ct	-137
ay	-138
▁sch	-139
ung	-140
▁den	-141
▁ge	-142
den	-143
▁-	-144
▁?	-145
ver	-146
▁all	-147
▁als	-148
▁for	-149
um	-150
ür	-151
ck	-152
nen	-153
▁le	-154
▁--	-155
▁nicht	-156
▁von	-157
ld	-158
and	-159
op	-160
▁ne	-161
be	-162
▁auf	-163
▁dass	-164
▁eine	-165
▁ab	-166
ation	-167
▁do	-168
▁pro	-169
▁mit	-170
▁:	-171
ce	-172
au	-173
▁im	-174
▁man	-175
ess	-176
ht	-177
▁he	-178
der	-179
▁wie	-180
▁they	-181
ann	-182
ff	-183
▁li	-184
ine	-185
est	-186
ag	-187
ill	-188
th	-189
▁sp	-190
▁war	-191
ith	-192
▁go	-193
ly	-194
▁uns	-195
id	-196
▁ar	-197
▁are	-198
isch	-199
sen	-200
ally	-201
se	-202
▁mo	-203
hen	-204
▁ch	-205
▁with	-206
▁what	-207
ul	-208
men	-209
▁have	-210
enn	-211
▁sich	-212
kt	-213
▁but	-214
▁as	-215
ist	-216
▁wor	-217
ell	-218
▁can	-219
über	-220
▁sh	-221
aus	-222
▁com	-223
uch	-224
▁aus	-225
ft	-226
▁fr	-227
ust	-228
ers	-229
we	-230
out	-231
▁at	-232
▁ex	-233
▁or	-234
ern	-235
ab	-236
▁um	-237
ib	-238
▁für	-239
▁sind	-240
▁1	-241
▁aber	-242
ön	-243
ant	-244
▁ih	-245
ad	-246
▁wenn	-247
▁haben	-248
und	-249
▁there	-250
▁hat	-251
▁ges	-252
▁not	-253
▁about	-254
ould	-255
▁über	-256
▁de	-257
▁te	-258
▁wer	-259
▁also	-260
▁des	-261
ik	-262
▁en	-263
ze	-264
▁da	-265
og	-266
▁som	-267
oo	-268
ort	-269
iv	-270
▁kön	-271
ien	-272
art	-273
▁vie	-274
▁my	-275
▁sa	-276
▁diese	-277
▁dem	-278
ahr	-279
her	-280
▁tr	-281
▁pe	-282
▁no	-283
hl	-284
ies	-285
▁ma	-286
ese	-287
ight	-288
▁one	-289
he	-290
▁con	-291
▁vor	-292
mer	-293
▁pl	-294
▁gr	-295
▁peop	-296
▁people	-297
igen	-298
ive	-299
▁ent	-300
▁wo	-301
ne	-302
▁her	-303
▁bec	-304
ate	-305
ink	-306
▁men	-307
▁if	-308
ity	-309
▁us	-310
▁from	-311
etz	-312
▁like	-313
ute	-314
ure	-315
▁kn	-316
ste	-317
▁einen	-318
00	-319
▁now	-320
▁nach	-321
ang	-322
ieren	-323
▁gen	-324
▁just	-325
▁our	-326
▁get	-327
ein	-328
ast	-329
▁out	-330
▁these	-331
▁ze	-332
▁können	-333
ook	-334
lt	-335
od	-336
▁hier	-337
ause	-338
▁know	-339
▁mach	-340
▁2	-341
▁oder	-342
end	-343
▁inter	-344
▁mensch	-345
▁thing	-346
▁them	-347
▁werden	-348
▁sein	-349
ted	-350
iert	-351
▁when	-352
ick	-353
▁pr	-354
ild	-355
▁because	-356
ear	-357
fe	-358
per	-359
tw	-360
▁how	-361
ass	-362
oug	-363
▁up	-364
▁very	-365
▁think	-366
ungen	-367
▁dar	-368
▁am	-369
▁who	-370
lle	-371
pp	-372
iz	-373
▁mein	-374
▁gl	-375
▁kann	-376
▁kind	-377
ite	-378
ige	-379
▁by	-380
▁–	-381
▁einer	-382
▁ste	-383
ound	-384
▁br	-385
▁some	-386
chen	-387
ken	-388
▁see	-389
▁comp	-390
one	-391
▁act	-392
▁auch	-393
ah	-394
scha	-395
▁co	-396
our	-397
fen	-398
ain	-399
▁ihr	-400
▁einem	-401
▁going	-402
▁dann	-403
ibt	-404
zen	-405
for	-406
sten	-407
olog	-408
eren	-409
▁ever	-410
▁sehr	-411
ät	-412
▁will	-413
ack	-414
pt	-415
▁your	-416
▁nur	-417
▁which	-418
▁tim	-419
ose	-420
ans	-421
ial	-422
▁etw	-423
▁here	-424
▁year	-425
age	-426
▁had	-427
ide	-428
pl	-429
▁wird	-430
ard	-431
ame	-432
änd	-433
ischen	-434
▁more	-435
ug	-436
▁mus	-437
▁look	-438
▁gro	-439
ud	-440
▁unter	-441
▁qu	-442
▁would	-443
ble	-444
▁menschen	-445
▁int	-446
reat	-447
ück	-448
▁mich	-449
ert	-450
ise	-451
▁fe	-452
urch	-453
▁kon	-454
▁bl	-455
ör	-456
▁kom	-457
itt	-458
▁really	-459
▁fra	-460
keit	-461
▁leben	-462
▁ro	-463
▁gibt	-464
ous	-465
▁ihnen	-466
äch	-467
issen	-468
▁per	-469
▁their	-470
▁bes	-471
▁fa	-472
▁gesch	-473
ually	-474
▁world	-475
▁work	-476
are	-477
▁then	-478
▁were	-479
▁wur	-480
pen	-481
hal	-482
iel	-483
▁ra	-484
▁ta	-485
hing	-486
du	-487
chn	-488
▁jahr	-489
▁ev	-490
wo	-491
▁welt	-492
▁fl	-493
zu	-494
▁way	-495
▁every	-496
▁sehen	-497
▁bet	-498
ru	-499
▁jed	-500
ia	-501
heit	-502
ip	-503
▁has	-504
ank	-505
▁dieser	-506
ue	-507
▁noch	-508
ign	-509
schaft	-510
▁etwas	-511
if	-512
llen	-513
▁durch	-514
▁ke	-515
▁don	-516
ater	-517
▁bei	-518
ment	-519
▁ihre	-520
ions	-521
▁time	-522
▁su	-523
▁oth	-524
▁sy	-525
▁mö	-526
▁viel	-527
▁ind	-528
▁mir	-529
▁habe	-530
ong	-531
▁af	-532
ough	-533
▁actually	-534
alk	-535
▁ob	-536
▁new	-537
▁ag	-538
▁sag	-539
▁bra	-540
▁say	-541
▁wissen	-542
▁ide	-543
▁sel	-544
blem	-545
▁mehr	-546
ect	-547
nt	-548
▁into	-549
sp	-550
▁zur	-551
▁where	-552
▁ph	-553
sel	-554
▁could	-555
▁sc	-556
än	-557
ische	-558
▁;	-559
beit	-560
ob	-561
▁tra	-562
▁problem	-563
▁things	-564
ore	-565
▁beg	-566
▁cl	-567
▁art	-568
▁techn	-569
▁alle	-570
▁years	-571
etzt	-572
▁groß	-573
lichen	-574
▁wirk	-575
▁po	-576
▁did	-577
▁other	-578
mal	-579
▁want	-580
▁zwe	-581
stem	-582
▁well	-583
ult	-584
rei	-585
▁somet	-586
▁einf	-587
▁lo	-588
cht	-589
är	-590
▁fir	-591
ak	-592
▁zum	-593
liche	-594
▁any	-595
▁gan	-596
che	-597
ical	-598
▁part	-599
▁nat	-600
▁got	-601
form	-602
hn	-603
lie	-604
▁zeit	-605
▁hap	-606
▁she	-607
▁mill	-608
ple	-609
▁dr	-610
▁wür	-611
▁wirklich	-612
▁make	-613
▁been	-614
▁right	-615
inge	-616
▁pers	-617
▁meine	-618
▁bu	-619
▁fü	-620
me	-621
ac	-622
▁weil	-623
▁said	-624
▁unser	-625
ace	-626
▁diff	-627
ähr	-628
ry	-629
▁nun	-630
rie	-631
ile	-632
▁wurde	-633
pr	-634
üs	-635
▁find	-636
▁machen	-637
chte	-638
oss	-639
fü	-640
▁vers	-641
▁need	-642
▁over	-643
ory	-644
▁dieses	-645
▁mar	-646
▁something	-647
▁spe	-648
▁two	-649
▁einfach	-650
▁tun	-651
ient	-652
wer	-653
ree	-654
assen	-655
mt	-656
▁verb	-657
stell	-658
ommen	-659
fl	-660
iver	-661
▁back	-662
▁first	-663
▁pre	-664
▁kle	-665
iter	-666
▁3	-667
gt	-668
ice	-669
able	-670
ges	-671
▁dis	-672
▁em	-673
ger	-674
▁res	-675
▁immer	-676
▁lie	-677
bst	-678
▁those	-679
ens	-680
ond	-681
▁dam	-682
000	-683
elt	-684
ange	-685
▁bis	-686
▁his	-687
▁imp	-688
▁ad	-689
ungs	-690
▁talk	-691
own	-692
▁call	-693
ys	-694
▁technolog	-695
▁than	-696
ount	-697
▁unsere	-698
▁litt	-699
▁ho	-700
▁stud	-701
aten	-702
▁gew	-703
▁little	-704
inn	-705
▁gem	-706
▁star	-707
▁jetzt	-708
ffen	-709
ome	-710
ingen	-711
▁arbeit	-712
▁hin	-713
ations	-714
▁ac	-715
cent	-716
▁most	-717
▁hand	-718
▁ger	-719
▁gut	-720
▁much	-721
ats	-722
ves	-723
▁du	-724
ath	-725
▁lot	-726
iger	-727
hmen	-728
eln	-729
erst	-730
▁hatte	-731
▁life	-732
▁real	-733
bl	-734
▁system	-735
vel	-736
ds	-737
▁kl	-738
▁denn	-739
way	-740
gan	-741
▁happen	-742
▁hum	-743
▁keine	-744
ase	-745
▁selbst	-746
ody	-747
ving	-748
▁leute	-749
▁geb	-750
▁even	-751
▁viele	-752
nte	-753
ition	-754
▁diesem	-755
gr	-756
ale	-757
iß	-758
▁only	-759
▁müs	-760
▁zus	-761
▁hel	-762
▁reg	-763
schie	-764
▁pol	-765
hlen	-766
▁land	-767
als	-768
glich	-769
▁19	-770
leich	-771
▁good	-772
▁gel	-773
erg	-774
▁cont	-775
▁str	-776
▁take	-777
ktion	-778
▁day	-779
▁person	-780
▁bef	-781
▁sagte	-782
▁sagen	-783
▁med	-784
▁zwei	-785
▁mal	-786
▁produ	-787
ichte	-788
ated	-789
▁ele	-790
▁pass	-791
▁dinge	-792
▁mon	-793
▁eines	-794
ents	-795
▁thr	-796
bar	-797
▁many	-798
▁soll	-799
▁diesen	-800
uchen	-801
aut	-802
tern	-803
ish	-804
other	-805
▁bin	-806
wn	-807
igkeit	-808
ely	-809
▁geh	-810
▁entw	-811
ance	-812
▁let	-813
▁waren	-814
▁design	-815
▁teil	-816
▁ok	-817
▁show	-818
oll	-819
▁sol	-820
uen	-821
ph	-822
▁ir	-823
▁glau	-824
▁alles	-825
▁fre	-826
▁does	-827
▁wieder	-828
▁down	-829
ire	-830
ram	-831
int	-832
▁jahren	-833
erent	-834
▁müssen	-835
gl	-836
unden	-837
ser	-838
▁car	-839
▁bek	-840
▁andere	-841
▁20	-842
▁sm	-843
▁oh	-844
▁different	-845
▁exper	-846
▁put	-847
br	-848
▁may	-849
▁nie	-850
▁around	-851
acht	-852
▁through	-853
▁million	-854
ammen	-855
auf	-856
▁par	-857
▁why	-858
ood	-859
ution	-860
gend	-861
▁5	-862
▁fun	-863
▁schw	-864
urn	-865
▁kein	-866
igt	-867
get	-868
▁best	-869
ok	-870
▁anderen	-871
▁bo	-872
ord	-873
xt	-874
▁dav	-875
▁würde	-876
▁off	-877
▁ben	-878
ction	-879
▁damit	-880
ors	-881
ict	-882
ahre	-883
▁tell	-884
▁erf	-885
▁plan	-886
net	-887
▁heraus	-888
▁zusammen	-889
ität	-890
ian	-891
▁aut	-892
▁10	-893
▁fam	-894
ty	-895
auen	-896
▁inv	-897
day	-898
▁vielle	-899
ßen	-900
▁vielleicht	-901
▁comm	-902
tel	-903
ible	-904
ner	-905
ichtig	-906
▁min	-907
▁being	-908
cess	-909
ious	-910
ought	-911
▁tats	-912
▁big	-913
pe	-914
▁pat	-915
ren	-916
▁gra	-917
▁use	-918
▁ins	-919
ience	-920
ha	-921
▁bas	-922
▁come	-923
ary	-924
ric	-925
▁hal	-926
▁great	-927
▁inc	-928
▁4	-929
▁wen	-930
oc	-931
▁rel	-932
▁sim	-933
ons	-934
▁app	-935
▁met	-936
▁univer	-937
igh	-938
▁ja	-939
ject	-940
▁trans	-941
iss	-942
▁three	-943
vor	-944
▁amer	-945
▁sur	-946
▁try	-947
ces	-948
ower	-949
▁zw	-950
▁same	-951
▁jahre	-952
▁gu	-953
▁stat	-954
▁pa	-955
▁bi	-956
▁lang	-957
▁comput	-958
▁geht	-959
▁human	-960
▁start	-961
▁inform	-962
▁mom	-963
ri	-964
▁wahr	-965
geb	-966
▁entwick	-967
isten	-968
▁schl	-969
▁pu	-970
▁bit	-971
ful	-972
nis	-973
king	-974
▁fact	-975
▁kam	-976
▁zurück	-977
▁count	-978
▁wel	-979
▁doing	-980
▁nor	-981
ün	-982
▁klein	-983
▁famil	-984
▁weiter	-985
act	-986
halten	-987
ically	-988
▁dec	-989
▁el	-990
arn	-991
▁child	-992
tra	-993
▁energ	-994
zent	-995
▁gleich	-996
▁end	-997
ual	-998
▁kr	-999
ting	-1000
▁grund	-1001
▁heute	-1002
ächlich	-1003
tet	-1004
▁gef	-1005
ade	-1006
▁einz	-1007
utz	-1008
ellen	-1009
▁build	-1010
▁muss	-1011
▁ko	-1012
▁fin	-1013
ved	-1014
▁schon	-1015
▁warum	-1016
ism	-1017
ler	-1018
▁doll	-1019
▁percent	-1020
▁again	-1021
ics	-1022
▁ganz	-1023
str	-1024
ize	-1025
▁ö	-1026
uss	-1027
▁sec	-1028
▁dollar	-1029
ep	-1030
äu	-1031
body	-1032
▁him	-1033
▁ear	-1034
▁wr	-1035
▁long	-1036
iden	-1037
▁after	-1038
äre	-1039
bt	-1040
▁form	-1041
thing	-1042
▁einige	-1043
▁rem	-1044
▁gegen	-1045
▁organ	-1046
▁called	-1047
essen	-1048
▁genau	-1049
ks	-1050
öß	-1051
sy	-1052
isp	-1053
▁tag	-1054
llt	-1055
omen	-1056
esen	-1057
▁möchte	-1058
ucht	-1059
▁macht	-1060
old	-1061
▁tatsächlich	-1062
kl	-1063
▁made	-1064
nten	-1065
▁kinder	-1066
ating	-1067
▁information	-1068
pro	-1069
self	-1070
its	-1071
ffe	-1072
▁today	-1073
▁own	-1074
▁bere	-1075
teil	-1076
▁fall	-1077
äh	-1078
red	-1079
▁geschichte	-1080
je	-1081
▁bild	-1082
▁far	-1083
▁should	-1084
üt	-1085
▁quest	-1086
▁letz	-1087
hren	-1088
▁soc	-1089
▁verw	-1090
ven	-1091
▁drei	-1092
▁beisp	-1093
▁davon	-1094
angen	-1095
▁dort	-1096
con	-1097
ahl	-1098
▁dan	-1099
ins	-1100
▁learn	-1101
▁eigen	-1102
▁jem	-1103
ool	-1104
▁bewe	-1105
▁last	-1106
ts	-1107
▁möglich	-1108
▁turn	-1109
iten	-1110
▁bede	-1111
▁play	-1112
▁import	-1113
inden	-1114
▁cr	-1115
▁underst	-1116
▁erz	-1117
les	-1118
ierte	-1119
entlich	-1120
bs	-1121
▁denken	-1122
▁weg	-1123
▁200	-1124
▁la	-1125
▁hatten	-1126
ichten	-1127
▁zie	-1128
▁thought	-1129
▁seine	-1130
▁verl	-1131
▁another	-1132
▁creat	-1133
▁mor	-1134
chten	-1135
▁gener	-1136
▁sit	-1137
▁ted	-1138
ings	-1139
▁ser	-1140
▁feel	-1141
ational	-1142
uten	-1143
▁paar	-1144
▁its	-1145
▁spiel	-1146
▁sk	-1147
▁cour	-1148
▁darüber	-1149
▁natür	-1150
▁planet	-1151
▁könnte	-1152
aph	-1153
sum	-1154
ular	-1155
,000	-1156
äs	-1157
▁chin	-1158
▁idea	-1159
▁mean	-1160
▁belie	-1161
ids	-1162
▁num	-1163
ities	-1164
▁thank	-1165
▁interess	-1166
▁größ	-1167
rechen	-1168
▁ihn	-1169
halb	-1170
sche	-1171
▁weiß	-1172
co	-1173
▁sl	-1174
▁before	-1175
ix	-1176
▁didn	-1177
▁change	-1178
▁moment	-1179
zie	-1180
▁beh	-1181
▁gehen	-1182
▁lassen	-1183
▁verste	-1184
▁power	-1185
mlich	-1186
▁still	-1187
ope	-1188
äd	-1189
▁story	-1190
▁veränd	-1191
▁important	-1192
▁besch	-1193
gel	-1194
▁give	-1195
▁school	-1196
atz	-1197
▁ber	-1198
▁ask	-1199
▁inst	-1200
▁went	-1201
▁wollen	-1202
▁started	-1203
ache	-1204
oren	-1205
▁ter	-1206
▁währ	-1207
▁erst	-1208
▁werde	-1209
weise	-1210
▁vis	-1211
irn	-1212
▁understand	-1213
ock	-1214
▁found	-1215
alt	-1216
▁tre	-1217
▁ans	-1218
amp	-1219
kte	-1220
▁beispiel	-1221
ork	-1222
▁stand	-1223
oth	-1224
▁exam	-1225
▁imag	-1226
▁jeder	-1227
▁never	-1228
ennen	-1229
▁cent	-1230
▁sond	-1231
bei	-1232
▁fil	-1233
io	-1234
▁mag	-1235
reich	-1236
▁meiner	-1237
olution	-1238
▁bill	-1239
▁help	-1240
▁glob	-1241
▁computer	-1242
▁ihren	-1243
gar	-1244
▁polit	-1245
ility	-1246
▁woll	-1247
▁während	-1248
▁bess	-1249
▁wurden	-1250
ital	-1251
kes	-1252
▁better	-1253
▁sicher	-1254
az	-1255
▁high	-1256
schein	-1257
▁..	-1258
▁point	-1259
ied	-1260
▁schn	-1261
▁course	-1262
▁sort	-1263
pf	-1264
utzen	-1265
▁brain	-1266
gram	-1267
ont	-1268
▁able	-1269
▁dazu	-1270
▁fu	-1271
ather	-1272
▁rec	-1273
att	-1274
schieden	-1275
ma	-1276
cken	-1277
ider	-1278
gef	-1279
stand	-1280
anz	-1281
▁expl	-1282
▁might	-1283
▁kommen	-1284
▁gab	-1285
▁next	-1286
kommen	-1287
▁...	-1288
ists	-1289
yp	-1290
▁stu	-1291
ward	-1292
für	-1293
▁funktion	-1294
▁ä	-1295
▁each	-1296
▁natürlich	-1297
▁vom	-1298
▁wäre	-1299
▁technology	-1300
rik	-1301
ues	-1302
▁denke	-1303
▁char	-1304
▁wichtig	-1305
▁jemand	-1306
▁nam	-1307
▁dat	-1308
▁sondern	-1309
▁ago	-1310
▁unserer	-1311
ster	-1312
▁rob	-1313
ander	-1314
▁toget	-1315
▁bus	-1316
▁eff	-1317
▁together	-1318
▁vide	-1319
iven	-1320
▁sogar	-1321
stellen	-1322
▁came	-1323
▁erzä	-1324
▁okay	-1325
▁natur	-1326
▁zwischen	-1327
▁neue	-1328
▁lebens	-1329
▁gemacht	-1330
▁sen	-1331
schen	-1332
land	-1333
nehmen	-1334
velop	-1335
▁phys	-1336
▁jo	-1337
▁four	-1338
▁water	-1339
agen	-1340
▁commun	-1341
amm	-1342
under	-1343
▁doch	-1344
▁glaube	-1345
cted	-1346
ünd	-1347
▁hät	-1348
▁denen	-1349
▁place	-1350
▁spec	-1351
▁number	-1352
▁9	-1353
ween	-1354
▁mater	-1355
ehen	-1356
alth	-1357
▁gerade	-1358
▁frage	-1359
▁comple	-1360
▁wissenschaft	-1361
▁näch	-1362
▁kur	-1363
▁develop	-1364
▁finden	-1365
ative	-1366
▁einmal	-1367
▁30	-1368
▁ohne	-1369
▁geben	-1370
▁publ	-1371
▁ersten	-1372
▁ihrer	-1373
no	-1374
▁irgend	-1375
mit	-1376
▁15	-1377
ited	-1378
man	-1379
▁patient	-1380
▁50	-1381
▁between	-1382
iness	-1383
▁few	-1384
▁fol	-1385
arch	-1386
▁nichts	-1387
hrt	-1388
▁lar	-1389
read	-1390
atch	-1391
▁letzten	-1392
▁scha	-1393
▁weit	-1394
▁son	-1395
imm	-1396
▁abs	-1397
▁dra	-1398
▁dafür	-1399
▁8	-1400
ced	-1401
▁internet	-1402
achen	-1403
▁second	-1404
▁erw	-1405
▁inte	-1406
ium	-1407
▁used	-1408
▁bring	-1409
▁prozent	-1410
▁too	-1411
anted	-1412
▁dre	-1413
▁lö	-1414
▁old	-1415
ized	-1416
▁100	-1417
▁small	-1418
ures	-1419
▁kommt	-1420
▁interest	-1421
▁global	-1422
▁wa	-1423
▁cre	-1424
▁würden	-1425
▁dach	-1426
geben	-1427
▁question	-1428
▁looking	-1429
ific	-1430
els	-1431
▁gehirn	-1432
▁zeigen	-1433
▁light	-1434
▁grow	-1435
▁americ	-1436
▁cor	-1437
▁mark	-1438
ierung	-1439
ationen	-1440
▁exp	-1441
▁stra	-1442
arbeit	-1443
▁gemein	-1444
▁prof	-1445
▁maybe	-1446
cy	-1447
aufen	-1448
ule	-1449
fer	-1450
▁done	-1451
zt	-1452
▁je	-1453
oney	-1454
▁cell	-1455
▁children	-1456
▁passiert	-1457
dem	-1458
▁cap	-1459
▁eng	-1460
▁stre	-1461
▁verstehen	-1462
▁whole	-1463
ms	-1464
▁bew	-1465
▁dire	-1466
▁partic	-1467
gest	-1468
▁love	-1469
ail	-1470
▁data	-1471
▁run	-1472
ört	-1473
▁wasser	-1474
▁live	-1475
ways	-1476
ably	-1477
▁rest	-1478
eter	-1479
ören	-1480
▁vielen	-1481
▁doesn	-1482
▁verschieden	-1483
▁ander	-1484
gew	-1485
zeit	-1486
▁erste	-1487
▁mut	-1488
atter	-1489
unkt	-1490
▁sieht	-1491
ember	-1492
▁ged	-1493
▁daran	-1494
los	-1495
▁ur	-1496
▁lea	-1497
conom	-1498
tschaft	-1499
▁eig	-1500
erung	-1501
▁vier	-1502
▁afric	-1503
▁millionen	-1504
▁prob	-1505
▁vir	-1506
▁example	-1507
▁begin	-1508
dr	-1509
enden	-1510
ogr	-1511
cept	-1512
▁mil	-1513
▁project	-1514
vers	-1515
▁econom	-1516
off	-1517
▁mind	-1518
▁geld	-1519
▁haus	-1520
▁such	-1521
▁read	-1522
▁wanted	-1523
▁konnte	-1524
▁fast	-1525
cher	-1526
▁less	-1527
immt	-1528
▁kre	-1529
selves	-1530
▁job	-1531
▁health	-1532
▁program	-1533
▁na	-1534
▁idee	-1535
fin	-1536
▁open	-1537
▁arch	-1538
▁care	-1539
▁ganze	-1540
mo	-1541
▁bed	-1542
.000	-1543
▁anf	-1544
elle	-1545
▁stellen	-1546
ps	-1547
led	-1548
▁book	-1549
▁sagt	-1550
▁dabei	-1551
▁nehmen	-1552
aub	-1553
rat	-1554
allen	-1555
▁anim	-1556
▁five	-1557
▁große	-1558
tre	-1559
▁material	-1560
ahren	-1561
jekt	-1562
▁trying	-1563
▁etwa	-1564
▁glück	-1565
▁gre	-1566
▁colle	-1567
▁gar	-1568
▁hund	-1569
äng	-1570
▁könnten	-1571
ften	-1572
▁supp	-1573
ement	-1574
▁poss	-1575
▁women	-1576
▁experim	-1577
▁money	-1578
▁lab	-1579
▁daten	-1580
etzen	-1581
▁working	-1582
enten	-1583
▁sing	-1584
schl	-1585
ernen	-1586
▁times	-1587
▁set	-1588
▁stru	-1589
▁space	-1590
▁kont	-1591
▁robot	-1592
▁besser	-1593
▁sollte	-1594
fr	-1595
▁kids	-1596
▁bre	-1597
▁cou	-1598
sam	-1599
ness	-1600
ischer	-1601
ives	-1602
▁sign	-1603
▁spra	-1604
▁away	-1605
▁reas	-1606
▁everything	-1607
ines	-1608
▁always	-1609
zeug	-1610
▁frauen	-1611
▁ziemlich	-1612
▁ang	-1613
▁acc	-1614
ention	-1615
richt	-1616
▁fut	-1617
▁arbeiten	-1618
▁pict	-1619
ßer	-1620
▁chang	-1621
öt	-1622
▁kör	-1623
▁believe	-1624
▁raum	-1625
▁country	-1626
▁fragen	-1627
uer	-1628
▁har	-1629
▁mod	-1630
ständ	-1631
▁schnell	-1632
gehen	-1633
schied	-1634
▁sollten	-1635
▁lu	-1636
▁pos	-1637
▁welche	-1638
iar	-1639
hlt	-1640
raft	-1641
licher	-1642
▁pra	-1643
▁meisten	-1644
ief	-1645
ogen	-1646
▁sprechen	-1647
▁math	-1648
ates	-1649
▁soz	-1650
▁hist	-1651
▁bekommen	-1652
▁wollte	-1653
lung	-1654
▁pop	-1655
anken	-1656
▁meinen	-1657
▁beste	-1658
▁fas	-1659
kun	-1660
uge	-1661
row	-1662
▁hard	-1663
agt	-1664
isen	-1665
▁meinem	-1666
▁ant	-1667
ograph	-1668
▁under	-1669
▁teach	-1670
▁using	-1671
▁darauf	-1672
üh	-1673
▁cle	-1674
▁film	-1675
▁ging	-1676
mö	-1677
sehen	-1678
▁earth	-1679
▁hö	-1680
▁mot	-1681
dern	-1682
asch	-1683
utet	-1684
▁air	-1685
▁thinking	-1686
vir	-1687
▁net	-1688
▁ende	-1689
▁food	-1690
ppe	-1691
ält	-1692
▁außer	-1693
▁richt	-1694
ären	-1695
▁video	-1696
▁home	-1697
▁inno	-1698
rop	-1699
annt	-1700
▁walk	-1701
▁kleinen	-1702
▁took	-1703
▁create	-1704
nf	-1705
wh	-1706
legen	-1707
▁neur	-1708
par	-1709
▁sin	-1710
▁ungl	-1711
▁bab	-1712
▁verg	-1713
▁arm	-1714
▁head	-1715
▁conne	-1716
▁sta	-1717
▁energy	-1718
vern	-1719
ries	-1720
▁must	-1721
press	-1722
scheinlich	-1723
kunft	-1724
91	-1725
hip	-1726
gung	-1727
▁hoch	-1728
▁means	-1729
▁eigentlich	-1730
ktur	-1731
▁pres	-1732
ktiv	-1733
▁bil	-1734
▁future	-1735
▁resp	-1736
gs	-1737
unde	-1738
▁weniger	-1739
▁frien	-1740
▁happ	-1741
▁gefü	-1742
▁amerik	-1743
▁china	-1744
▁technologie	-1745
93	-1746
▁schle	-1747
▁seit	-1748
▁left	-1749
▁compan	-1750
▁col	-1751
▁interesting	-1752
cover	-1753
▁elect	-1754
▁rad	-1755
▁glauben	-1756
▁innov	-1757
▁become	-1758
duc	-1759
▁chr	-1760
▁quite	-1761
▁att	-1762
▁afrik	-1763
gh	-1764
na	-1765
▁cur	-1766
gesch	-1767
▁erinn	-1768
▁phot	-1769
▁sache	-1770
▁enough	-1771
nder	-1772
▁buch	-1773
▁getting	-1774
kr	-1775
ird	-1776
▁jeden	-1777
cle	-1778
▁fünf	-1779
▁versuch	-1780
▁grou	-1781
▁heiß	-1782
▁sw	-1783
ruck	-1784
ters	-1785
reiben	-1786
▁ganzen	-1787
▁wunder	-1788
▁bringen	-1789
▁ret	-1790
▁half	-1791
▁univers	-1792
ouse	-1793
▁lernen	-1794
ilt	-1795
ierten	-1796
▁che	-1797
▁probably	-1798
vie	-1799
zlich	-1800
▁process	-1801
▁eur	-1802
▁sense	-1803
▁ris	-1804
ändern	-1805
▁cons	-1806
▁stop	-1807
▁york	-1808
▁comes	-1809
▁schön	-1810
ivid	-1811
▁bedeutet	-1812
▁says	-1813
▁recht	-1814
▁großen	-1815
▁social	-1816
alen	-1817
erne	-1818
▁govern	-1819
91;	-1820
sych	-1821
93;	-1822
▁city	-1823
▁science	-1824
▁energie	-1825
fall	-1826
▁pap	-1827
▁building	-1828
äter	-1829
▁prote	-1830
ga	-1831
▁team	-1832
cer	-1833
▁sym	-1834
▁invest	-1835
▁without	-1836
ionen	-1837
ultur	-1838
▁stuff	-1839
▁komple	-1840
▁ihm	-1841
ories	-1842
▁jedes	-1843
▁wahrscheinlich	-1844
▁month	-1845
ald	-1846
fte	-1847
▁beaut	-1848
cke	-1849
äft	-1850
ulation	-1851
▁sub	-1852
ennt	-1853
▁offen	-1854
▁unseren	-1855
▁face	-1856
▁18	-1857
▁normal	-1858
▁business	-1859
let	-1860
▁voll	-1861
ertain	-1862
▁test	-1863
▁pie	-1864
iting	-1865
▁gesehen	-1866
aps	-1867
ets	-1868
▁fest	-1869
▁biolog	-1870
bo	-1871
usst	-1872
▁möglichkeit	-1873
▁ihrem	-1874
▁dachte	-1875
▁indust	-1876
▁kleine	-1877
urs	-1878
▁nä	-1879
▁making	-1880
ane	-1881
▁gest	-1882
▁talking	-1883
ying	-1884
▁dollars	-1885
▁chem	-1886
▁betra	-1887
line	-1888
▁contro	-1889
nah	-1890
iere	-1891
▁youn	-1892
▁individ	-1893
ott	-1894
adt	-1895
▁mann	-1896
▁brauchen	-1897
kten	-1898
▁eins	-1899
▁ru	-1900
▁antw	-1901
▁body	-1902
▁engl	-1903
▁körper	-1904
▁psych	-1905
▁top	-1906
▁eben	-1907
achsen	-1908
▁africa	-1909
äus	-1910
▁archite	-1911
▁val	-1912
▁weise	-1913
▁bar	-1914
▁fig	-1915
▁wind	-1916
▁entsche	-1917
▁happened	-1918
▁wonder	-1919
cture	-1920
▁seite	-1921
▁versuchen	-1922
▁versch	-1923
ior	-1924
▁id	-1925
aces	-1926
▁room	-1927
ments	-1928
▁danke	-1929
▁bad	-1930
▁sound	-1931
▁zukunft	-1932
▁40	-1933
ever	-1934
▁hil	-1935
▁acr	-1936
halt	-1937
▁wes	-1938
viron	-1939
▁keep	-1940
▁öff	-1941
ches	-1942
▁zeigt	-1943
ime	-1944
port	-1945
▁kop	-1946
▁fort	-1947
quen	-1948
▁kar	-1949
emat	-1950
ices	-1951
▁coming	-1952
dition	-1953
▁ü	-1954
▁nein	-1955
▁environ	-1956
▁eas	-1957
▁simple	-1958
tem	-1959
▁else	-1960
▁menge	-1961
wir	-1962
▁gru	-1963
▁side	-1964
ckt	-1965
▁12	-1966
inen	-1967
▁bro	-1968
▁fal	-1969
▁wee	-1970
▁unterschied	-1971
▁hinter	-1972
▁absol	-1973
▁besond	-1974
llig	-1975
ially	-1976
▁verk	-1977
▁gesund	-1978
▁anything	-1979
ning	-1980
▁wirtschaft	-1981
▁pret	-1982
▁educ	-1983
▁seem	-1984
▁relig	-1985
▁dig	-1986
▁six	-1987
▁amaz	-1988
▁unglaub	-1989
▁scient	-1990
▁indem	-1991
irl	-1992
ister	-1993
änder	-1994
eten	-1995
▁mid	-1996
▁wenig	-1997
▁prin	-1998
▁essen	-1999
itive	-2000
▁typ	-2001
▁insp	-2002
ift	-2003
▁makes	-2004
ged	-2005
amer	-2006
iges	-2007
uring	-2008
▁beim	-2009
▁ass	-2010
▁rese	-2011
▁pretty	-2012
▁research	-2013
▁musik	-2014
lly	-2015
▁hope	-2016
ulture	-2017
ware	-2018
äum	-2019
▁los	-2020
▁goes	-2021
▁lives	-2022
▁problems	-2023
▁opt	-2024
▁red	-2025
▁across	-2026
▁rev	-2027
▁once	-2028
och	-2029
▁ey	-2030
▁fot	-2031
▁seen	-2032
▁erkl	-2033
▁opp	-2034
▁mathemat	-2035
▁tot	-2036
▁frau	-2037
▁fund	-2038
▁nutzen	-2039
erence	-2040
hin	-2041
▁told	-2042
▁allow	-2043
fort	-2044
▁seiner	-2045
▁später	-2046
iff	-2047
ließ	-2048
▁irgendw	-2049
▁pot	-2050
▁link	-2051
▁licht	-2052
▁reason	-2053
▁basically	-2054
▁tem	-2055
▁super	-2056
▁keinen	-2057
▁entde	-2058
ernt	-2059
wohl	-2060
▁living	-2061
schaften	-2062
ately	-2063
▁gute	-2064
▁music	-2065
▁yet	-2066
▁miss	-2067
rieben	-2068
▁hätte	-2069
▁matter	-2070
▁picture	-2071
▁eigenen	-2072
ator	-2073
ape	-2074
▁ble	-2075
▁saw	-2076
▁level	-2077
▁imagine	-2078
ument	-2079
itten	-2080
▁young	-2081
anc	-2082
▁gesagt	-2083
▁augen	-2084
ided	-2085
▁dank	-2086
▁situ	-2087
einander	-2088
▁unt	-2089
▁particular	-2090
sicht	-2091
▁extre	-2092
▁countries	-2093
▁25	-2094
▁erde	-2095
stellung	-2096
▁happens	-2097
▁case	-2098
▁oper	-2099
▁ways	-2100
▁while	-2101
▁del	-2102
denken	-2103
leben	-2104
▁hour	-2105
▁gesell	-2106
▁ort	-2107
anden	-2108
▁kurz	-2109
▁family	-2110
unter	-2111
cl	-2112
▁perfe	-2113
▁mutter	-2114
tellt	-2115
▁later	-2116
ähigkeit	-2117
▁jede	-2118
app	-2119
▁sor	-2120
▁socie	-2121
▁anders	-2122
▁environment	-2123
ily	-2124
gefähr	-2125
▁result	-2126
nung	-2127
▁bez	-2128
▁train	-2129
▁milliar	-2130
▁experience	-2131
ismus	-2132
ization	-2133
▁remember	-2134
▁schaffen	-2135
▁emot	-2136
▁days	-2137
▁move	-2138
▁having	-2139
▁aller	-2140
▁effect	-2141
ala	-2142
ünst	-2143
▁eing	-2144
ho	-2145
ktr	-2146
where	-2147
asse	-2148
▁män	-2149
▁terr	-2150
▁asked	-2151
hol	-2152
▁girl	-2153
▁exist	-2154
▁share	-2155
▁pain	-2156
unst	-2157
▁yes	-2158
▁ungefähr	-2159
▁defin	-2160
mun	-2161
ants	-2162
▁ideas	-2163
▁oft	-2164
▁discover	-2165
▁cal	-2166
system	-2167
gte	-2168
▁sah	-2169
most	-2170
reichen	-2171
▁single	-2172
hrer	-2173
▁bel	-2174
▁instit	-2175
▁schauen	-2176
ark	-2177
ene	-2178
oot	-2179
▁watch	-2180
▁evolution	-2181
▁funktioniert	-2182
zeich	-2183
▁inside	-2184
▁verd	-2185
ether	-2186
▁mole	-2187
▁richtig	-2188
yn	-2189
▁bevor	-2190
orn	-2191
▁ga	-2192
▁gesundheit	-2193
dle	-2194
▁mass	-2195
tt	-2196
erein	-2197
▁self	-2198
vo	-2199
▁billion	-2200
ash	-2201
▁sex	-2202
▁stadt	-2203
▁anz	-2204
▁kunst	-2205
▁wohl	-2206
ders	-2207
▁line	-2208
▁vo	-2209
▁allen	-2210
öl	-2211
▁eg	-2212
welt	-2213
ident	-2214
▁everybody	-2215
outh	-2216
ente	-2217
imes	-2218
zess	-2219
iving	-2220
▁hear	-2221
▁schul	-2222
▁konnten	-2223
▁complete	-2224
up	-2225
äl	-2226
äm	-2227
ality	-2228
▁name	-2229
▁erfol	-2230
▁certain	-2231
▁experiment	-2232
ritt	-2233
▁neu	-2234
▁krie	-2235
▁cho	-2236
▁both	-2237
▁contin	-2238
▁history	-2239
▁states	-2240
▁extra	-2241
▁nothing	-2242
▁sure	-2243
▁ident	-2244
ional	-2245
▁cost	-2246
isches	-2247
▁spielen	-2248
chs	-2249
▁herz	-2250
ousand	-2251
▁incred	-2252
▁market	-2253
▁saying	-2254
▁langu	-2255
ury	-2256
▁probleme	-2257
▁nature	-2258
▁product	-2259
gefü	-2260
▁flie	-2261
▁schwier	-2262
ready	-2263
▁neuen	-2264
▁wrong	-2265
▁genug	-2266
▁heißt	-2267
▁national	-2268
▁bau	-2269
▁loc	-2270
▁within	-2271
▁var	-2272
mittel	-2273
▁almost	-2274
▁answer	-2275
▁helfen	-2276
▁erzählen	-2277
utes	-2278
▁whether	-2279
▁hol	-2280
▁thousand	-2281
▁phil	-2282
ub	-2283
gang	-2284
▁alt	-2285
ament	-2286
▁kill	-2287
▁rich	-2288
▁ideen	-2289
min	-2290
▁schwer	-2291
▁nächsten	-2292
uf	-2293
▁erl	-2294
▁ern	-2295
▁heart	-2296
▁looks	-2297
▁cancer	-2298
spr	-2299
▁dna	-2300
▁universe	-2301
▁equ	-2302
▁treat	-2303
oman	-2304
▁god	-2305
▁dise	-2306
▁beautif	-2307
▁arg	-2308
▁herum	-2309
▁lange	-2310
▁liebe	-2311
▁already	-2312
ield	-2313
li	-2314
bra	-2315
des	-2316
▁hy	-2317
▁kennen	-2318
akt	-2319
▁krank	-2320
▁cond	-2321
▁guy	-2322
▁fing	-2323
▁gott	-2324
▁began	-2325
▁inner	-2326
▁unserem	-2327
▁revolution	-2328
▁ref	-2329
▁cells	-2330
▁bisschen	-2331
▁tradition	-2332
to	-2333
▁aud	-2334
▁erk	-2335
itz	-2336
▁leg	-2337
stru	-2338
▁suc	-2339
▁mess	-2340
▁true	-2341
▁begann	-2342
▁anal	-2343
▁stim	-2344
▁tele	-2345
▁amazing	-2346
▁possible	-2347
▁dev	-2348
▁sat	-2349
▁speak	-2350
▁einzel	-2351
ivity	-2352
▁beginn	-2353
▁überall	-2354
met	-2355
▁exc	-2356
▁mic	-2357
▁sei	-2358
ädchen	-2359
▁organis	-2360
▁nah	-2361
▁ye	-2362
▁priv	-2363
▁class	-2364
ogn	-2365
▁verbind	-2366
▁law	-2367
▁klar	-2368
ahrung	-2369
▁seinen	-2370
iker	-2371
▁win	-2372
▁manch	-2373
▁projekt	-2374
▁community	-2375
▁exact	-2376
▁darum	-2377
▁group	-2378
▁beautiful	-2379
▁wicht	-2380
▁control	-2381
▁green	-2382
ielt	-2383
▁euch	-2384
▁public	-2385
ages	-2386
▁front	-2387
▁kü	-2388
stra	-2389
▁arten	-2390
▁often	-2391
▁bauen	-2392
▁manchmal	-2393
▁age	-2394
side	-2395
▁kor	-2396
▁heard	-2397
▁works	-2398
▁looked	-2399
esten	-2400
▁figure	-2401
▁leuten	-2402
com	-2403
▁oce	-2404
▁adv	-2405
ugen	-2406
▁beha	-2407
▁intern	-2408
▁kontro	-2409
▁planeten	-2410
ös	-2411
▁spend	-2412
▁jun	-2413
▁kne	-2414
gangen	-2415
▁india	-2416
▁reden	-2417
▁sü	-2418
unch	-2419
▁web	-2420
hung	-2421
▁fähigkeit	-2422
▁hau	-2423
finden	-2424
hnlich	-2425
▁ed	-2426
▁dich	-2427
heiten	-2428
▁liter	-2429
▁months	-2430
▁mädchen	-2431
imate	-2432
▁nu	-2433
osed	-2434
▁challen	-2435
af	-2436
▁dir	-2437
▁ries	-2438
▁wert	-2439
▁statt	-2440
▁milliarden	-2441
▁mode	-2442
▁united	-2443
▁tw	-2444
ases	-2445
ppen	-2446
▁pay	-2447
▁engine	-2448
▁profess	-2449
ateg	-2450
äche	-2451
▁zer	-2452
▁middle	-2453
▁iss	-2454
▁niem	-2455
▁house	-2456
▁someone	-2457
cc	-2458
▁foll	-2459
▁jour	-2460
▁punkt	-2461
▁großart	-2462
▁built	-2463
▁order	-2464
ired	-2465
▁myself	-2466
ret	-2467
stead	-2468
▁amerikan	-2469
▁education	-2470
osp	-2471
▁frei	-2472
▁forsch	-2473
▁seinem	-2474
▁tat	-2475
ahlen	-2476
▁sechs	-2477
▁nennen	-2478
▁hor	-2479
▁usa	-2480
▁wus	-2481
vious	-2482
wor	-2483
ctor	-2484
▁afrika	-2485
▁instead	-2486
▁government	-2487
▁dau	-2488
▁lin	-2489
▁piece	-2490
kennen	-2491
▁schule	-2492
ieht	-2493
ücken	-2494
▁fant	-2495
▁gründ	-2496
▁since	-2497
▁stehen	-2498
ina	-2499
atur	-2500
▁follow	-2501
por	-2502
▁until	-2503
▁stories	-2504
ones	-2505
utzt	-2506
▁sens	-2507
▁words	-2508
▁anderes	-2509
▁behand	-2510
▁sagten	-2511
▁bewusst	-2512
▁geschichten	-2513
air	-2514
ging	-2515
less	-2516
▁yeah	-2517
▁night	-2518
▁gesellschaft	-2519
ames	-2520
ians	-2521
▁isn	-2522
▁tas	-2523
▁indien	-2524
▁verhalten	-2525
▁bü	-2526
▁vol	-2527
▁gesam	-2528
▁sometimes	-2529
ße	-2530
osph	-2531
gress	-2532
ortra	-2533
▁large	-2534
ton	-2535
hand	-2536
glichen	-2537
▁entwickelt	-2538
onen	-2539
gende	-2540
▁tool	-2541
ivil	-2542
▁sun	-2543
med	-2544
wand	-2545
▁frü	-2546
▁species	-2547
▁universum	-2548
▁non	-2549
▁liegt	-2550
▁state	-2551
▁gehört	-2552
oy	-2553
▁spr	-2554
ots	-2555
▁kopf	-2556
▁hören	-2557
asst	-2558
▁taking	-2559
▁decided	-2560
fol	-2561
ker	-2562
▁dep	-2563
▁prot	-2564
▁west	-2565
▁moral	-2566
▁couple	-2567
▁entire	-2568
ering	-2569
▁situation	-2570
▁elektr	-2571
▁places	-2572
▁mem	-2573
▁somebody	-2574
▁news	-2575
bes	-2576
ony	-2577
▁besonders	-2578
sh	-2579
▁netz	-2580
▁erfolg	-2581
▁schein	-2582
▁cra	-2583
▁lös	-2584
ested	-2585
▁meet	-2586
lichkeit	-2587
▁deshalb	-2588
▁model	-2589
▁object	-2590
▁unternehmen	-2591
▁informationen	-2592
▁det	-2593
gem	-2594
▁cir	-2595
▁mother	-2596
▁fle	-2597
ision	-2598
▁hoff	-2599
▁incre	-2600
▁rather	-2601
▁language	-2602
iele	-2603
forder	-2604
undert	-2605
▁verändern	-2606
bed	-2607
▁80	-2608
▁lau	-2609
ude	-2610
▁ty	-2611
▁jahrh	-2612
mals	-2613
wend	-2614
▁sinn	-2615
nisse	-2616
▁soft	-2617
▁quick	-2618
ination	-2619
▁online	-2620
▁ill	-2621
▁flug	-2622
schn	-2623
innen	-2624
▁namens	-2625
▁exactly	-2626
▁coll	-2627
▁mult	-2628
▁appro	-2629
ote	-2630
ential	-2631
zept	-2632
▁kinds	-2633
▁11	-2634
ende	-2635
▁ner	-2636
▁oben	-2637
▁past	-2638
▁society	-2639
▁ober	-2640
▁wasn	-2641
▁halten	-2642
▁bereits	-2643
▁erreichen	-2644
fft	-2645
hau	-2646
▁foc	-2647
acter	-2648
av	-2649
aur	-2650
ibly	-2651
▁cool	-2652
▁though	-2653
▁everyone	-2654
▁ourselves	-2655
ides	-2656
▁fly	-2657
▁mer	-2658
▁ster	-2659
▁benutzen	-2660
▁game	-2661
▁künst	-2662
▁labor	-2663
▁mov	-2664
▁complex	-2665
cing	-2666
istan	-2667
▁friends	-2668
▁minuten	-2669
voll	-2670
▁itself	-2671
izin	-2672
▁conf	-2673
▁teilen	-2674
▁company	-2675
▁dest	-2676
▁extrem	-2677
▁inspir	-2678
hle	-2679
face	-2680
ilen	-2681
▁completely	-2682
▁happy	-2683
▁musste	-2684
▁antwort	-2685
▁minutes	-2686
▁themselves	-2687
▁turns	-2688
▁verschiedene	-2689
ett	-2690
▁south	-2691
▁woman	-2692
▁hätten	-2693
▁animals	-2694
▁won	-2695
▁entf	-2696
▁repr	-2697
▁bezie	-2698
▁verr	-2699
▁behind	-2700
▁students	-2701
▁ange	-2702
▁genet	-2703
▁familie	-2704
▁niemand	-2705
eld	-2706
ush	-2707
▁oil	-2708
racht	-2709
▁machte	-2710
▁prov	-2711
▁focus	-2712
▁third	-2713
▁became	-2714
bare	-2715
▁erh	-2716
▁ple	-2717
▁listen	-2718
heim	-2719
ingt	-2720
▁john	-2721
▁redu	-2722
▁anst	-2723
▁goog	-2724
▁sozial	-2725
▁free	-2726
▁pred	-2727
ability	-2728
fu	-2729
▁success	-2730
igten	-2731
▁erkennen	-2732
▁verm	-2733
▁word	-2734
▁behav	-2735
▁darin	-2736
▁steht	-2737
▁clear	-2738
▁komplex	-2739
öff	-2740
▁view	-2741
▁kosten	-2742
▁america	-2743
weit	-2744
▁gets	-2745
▁happening	-2746
▁generation	-2747
bel	-2748
iet	-2749
ump	-2750
ommt	-2751
chter	-2752
zentr	-2753
▁mittel	-2754
the	-2755
▁wand	-2756
▁bilder	-2757
kon	-2758
▁along	-2759
▁shows	-2760
▁connect	-2761
ively	-2762
▁eth	-2763
▁kap	-2764
wards	-2765
▁deal	-2766
▁freund	-2767
ahn	-2768
eng	-2769
ption	-2770
▁dist	-2771
▁orig	-2772
▁black	-2773
▁gerne	-2774
▁learned	-2775
▁innovation	-2776
icken	-2777
▁beob	-2778
▁study	-2779
▁gruppe	-2780
▁systems	-2781
aun	-2782
bild	-2783
work	-2784
▁aff	-2785
▁huge	-2786
▁gefühl	-2787
▁hom	-2788
▁einzige	-2789
aum	-2790
ipp	-2791
une	-2792
▁lead	-2793
▁schre	-2794
▁verein	-2795
▁created	-2796
▁natural	-2797
rib	-2798
ared	-2799
▁sau	-2800
▁jedem	-2801
▁kultur	-2802
arten	-2803
asure	-2804
▁inde	-2805
▁gebäu	-2806
fä	-2807
neh	-2808
▁ball	-2809
grund	-2810
▁auto	-2811
▁disease	-2812
▁unglaublich	-2813
igung	-2814
▁bott	-2815
▁full	-2816
itting	-2817
▁hiv	-2818
▁hours	-2819
▁ocean	-2820
chan	-2821
▁sand	-2822
▁einge	-2823
gestellt	-2824
que	-2825
▁ones	-2826
▁syn	-2827
▁baby	-2828
▁explain	-2829
stoff	-2830
achten	-2831
▁taus	-2832
▁digital	-2833
▁cy	-2834
punkt	-2835
▁wall	-2836
▁braucht	-2837
▁stunden	-2838
sc	-2839
▁rot	-2840
ished	-2841
ource	-2842
▁guys	-2843
▁ak	-2844
aden	-2845
endet	-2846
immer	-2847
rä	-2848
▁bemer	-2849
▁field	-2850
▁innerhalb	-2851
▁transform	-2852
istic	-2853
▁deep	-2854
▁medizin	-2855
▁luft	-2856
ologie	-2857
▁personal	-2858
▁add	-2859
▁stell	-2860
▁wegen	-2861
▁center	-2862
▁unters	-2863
▁bereich	-2864
▁lim	-2865
kel	-2866
annte	-2867
ortun	-2868
▁death	-2869
▁besten	-2870
▁programm	-2871
▁irgendwie	-2872
▁ap	-2873
alten	-2874
▁diag	-2875
▁impro	-2876
▁opportun	-2877
▁relations	-2878
ässt	-2879
▁199	-2880
▁eight	-2881
▁ergeb	-2882
▁bestimm	-2883
cks	-2884
▁vö	-2885
anzen	-2886
▁sug	-2887
änger	-2888
▁grand	-2889
richten	-2890
▁american	-2891
haps	-2892
▁sum	-2893
rieb	-2894
▁dro	-2895
▁area	-2896
zeugen	-2897
▁early	-2898
▁seven	-2899
▁perhaps	-2900
▁questions	-2901
apt	-2902
zy	-2903
ither	-2904
▁amount	-2905
▁jahrhundert	-2906
▁auss	-2907
▁knew	-2908
▁interessant	-2909
▁ach	-2910
▁führ	-2911
▁umwelt	-2912
ließlich	-2913
▁bewegen	-2914
▁entscheid	-2915
cul	-2916
▁tut	-2917
itte	-2918
▁against	-2919
▁fantast	-2920
▁fä	-2921
itet	-2922
▁couldn	-2923
▁others	-2924
▁haupt	-2925
▁sachen	-2926
zus	-2927
▁av	-2928
▁led	-2929
▁worked	-2930
ager	-2931
▁lots	-2932
▁aktiv	-2933
▁vater	-2934
▁obwohl	-2935
▁entwickeln	-2936
iol	-2937
▁kil	-2938
akter	-2939
▁gave	-2940
▁recent	-2941
ples	-2942
▁cut	-2943
▁shar	-2944
▁krebs	-2945
▁beginnen	-2946
▁population	-2947
ef	-2948
▁blue	-2949
▁serv	-2950
druck	-2951
▁machine	-2952
▁learning	-2953
▁press	-2954
▁führen	-2955
▁google	-2956
▁verschiedenen	-2957
olved	-2958
▁pick	-2959
▁takes	-2960
▁vorstellen	-2961
ney	-2962
▁becom	-2963
kre	-2964
ral	-2965
ächt	-2966
ustellen	-2967
▁erhalten	-2968
ci	-2969
oph	-2970
▁least	-2971
bringen	-2972
▁einigen	-2973
▁patienten	-2974
▁dor	-2975
▁präs	-2976
▁sprache	-2977
▁90	-2978
▁stellt	-2979
▁erstaun	-2980
▁treffen	-2981
▁menschlichen	-2982
▁jap	-2983
▁solar	-2984
▁beiden	-2985
▁moving	-2986
ature	-2987
▁gleiche	-2988
stüt	-2989
itions	-2990
view	-2991
▁bir	-2992
▁sud	-2993
haupt	-2994
▁sage	-2995
▁text	-2996
▁reich	-2997
▁bedeut	-2998
▁kindern	-2999
ison	-3000
▁mik	-3001
▁verwenden	-3002
▁cann	-3003
▁ult	-3004
▁städ	-3005
▁kreat	-3006
▁during	-3007
▁nämlich	-3008
schnitt	-3009
▁persön	-3010
▁outside	-3011
häng	-3012
▁japan	-3013
▁dad	-3014
▁poor	-3015
▁software	-3016
ling	-3017
▁north	-3018
▁finally	-3019
▁prozess	-3020
äten	-3021
▁emp	-3022
▁gol	-3023
▁post	-3024
▁week	-3025
▁ziel	-3026
▁close	-3027
▁verfü	-3028
▁obvious	-3029
▁verbess	-3030
pect	-3031
anger	-3032
aster	-3033
▁century	-3034
by	-3035
werk	-3036
▁bank	-3037
utions	-3038
inal	-3039
▁wonderful	-3040
so	-3041
ante	-3042
▁enor	-3043
▁image	-3044
▁wollten	-3045
alax	-3046
▁feed	-3047
▁fehl	-3048
▁short	-3049
▁chance	-3050
▁diffic	-3051
▁absolute	-3052
▁ep	-3053
bere	-3054
▁culture	-3055
gn	-3056
ron	-3057
▁maj	-3058
▁wort	-3059
▁needs	-3060
▁difficult	-3061
ros	-3062
▁step	-3063
▁david	-3064
▁stück	-3065
▁pattern	-3066
zin	-3067
igte	-3068
tete	-3069
▁rep	-3070
▁prim	-3071
liches	-3072
▁event	-3073
▁difference	-3074
▁werk	-3075
▁morgen	-3076
▁schwar	-3077
bre	-3078
▁neg	-3079
▁überr	-3080
ising	-3081
▁daher	-3082
▁media	-3083
▁falls	-3084
▁masch	-3085
▁damals	-3086
▁erscha	-3087
▁regierung	-3088
▁tau	-3089
▁bitte	-3090
pekt	-3091
lligen	-3092
▁break	-3093
ology	-3094
▁galax	-3095
okrat	-3096
▁taken	-3097
▁sil	-3098
▁gebäude	-3099
▁unterstüt	-3100
▁log	-3101
zieren	-3102
▁ess	-3103
▁common	-3104
▁eltern	-3105
▁kommun	-3106
▁lage	-3107
erweise	-3108
▁versucht	-3109
▁thousands	-3110
▁14	-3111
iben	-3112
▁cop	-3113
ystem	-3114
▁zent	-3115
▁plast	-3116
otz	-3117
völ	-3118
▁eyes	-3119
▁buy	-3120
▁dun	-3121
▁angst	-3122
▁hands	-3123
hnt	-3124
▁ju	-3125
▁rei	-3126
▁camp	-3127
▁surpr	-3128
▁present	-3129
▁behavior	-3130
▁relationship	-3131
▁low	-3132
▁fern	-3133
▁aufga	-3134
▁hause	-3135
▁virus	-3136
▁gewalt	-3137
▁vertra	-3138
50	-3139
▁öl	-3140
▁drug	-3141
▁whatever	-3142
lam	-3143
▁hold	-3144
▁spez	-3145
▁democ	-3146
▁männer	-3147
▁street	-3148
▁powerful	-3149
▁mob	-3150
▁pfl	-3151
▁ve	-3152
▁squ	-3153
▁desc	-3154
▁direkt	-3155
kü	-3156
wort	-3157
ienen	-3158
▁wider	-3159
entlichen	-3160
▁occ	-3161
▁san	-3162
▁vortra	-3163
▁struktur	-3164
▁überhaupt	-3165
▁bud	-3166
▁kid	-3167
▁ändern	-3168
▁nächste	-3169
▁schreiben	-3170
fra	-3171
haft	-3172
sein	-3173
▁dom	-3174
beite	-3175
▁turned	-3176
▁beginning	-3177
tend	-3178
▁fand	-3179
▁meer	-3180
▁seeing	-3181
ums	-3182
onnen	-3183
▁ment	-3184
▁vision	-3185
uren	-3186
äume	-3187
▁incl	-3188
▁send	-3189
▁yourself	-3190
lossen	-3191
▁given	-3192
▁leave	-3193
▁major	-3194
▁anfang	-3195
baren	-3196
▁zwar	-3197
▁pract	-3198
▁communic	-3199
▁photograph	-3200
son	-3201
ogra	-3202
▁neues	-3203
ox	-3204
orie	-3205
▁tit	-3206
▁getan	-3207
▁nachdem	-3208
▁gleichen	-3209
ards	-3210
iken	-3211
▁neben	-3212
mar	-3213
▁reach	-3214
bert	-3215
▁hig	-3216
anten	-3217
▁gene	-3218
▁tief	-3219
▁kraft	-3220
▁leiden	-3221
▁länder	-3222
▁fundament	-3223
uld	-3224
enne	-3225
▁ground	-3226
▁ox	-3227
haus	-3228
▁easy	-3229
▁local	-3230
▁lehrer	-3231
▁audience	-3232
sw	-3233
▁tru	-3234
▁parts	-3235
▁brauch	-3236
genommen	-3237
▁fore	-3238
▁terms	-3239
pfen	-3240
▁allem	-3241
▁changed	-3242
▁verändert	-3243
hlte	-3244
▁hab	-3245
inary	-3246
▁eher	-3247
fläche	-3248
▁consum	-3249
▁geist	-3250
▁trotz	-3251
▁erklär	-3252
▁sieben	-3253
lic	-3254
▁198	-3255
▁brit	-3256
▁optim	-3257
▁cannot	-3258
mel	-3259
ängt	-3260
iziert	-3261
▁kamen	-3262
▁sicht	-3263
ased	-3264
▁simp	-3265
▁interested	-3266
▁entwicklung	-3267
ana	-3268
oud	-3269
▁tier	-3270
verage	-3271
▁falsch	-3272
oms	-3273
▁junge	-3274
▁mechan	-3275
▁vorher	-3276
▁perform	-3277
ars	-3278
▁erre	-3279
▁verh	-3280
▁paper	-3281
▁access	-3282
▁region	-3283
▁verbre	-3284
▁menschliche	-3285
▁dessen	-3286
iti	-3287
icks	-3288
ücke	-3289
▁circ	-3290
▁foot	-3291
▁near	-3292
aktion	-3293
ence	-3294
nahme	-3295
▁lässt	-3296
▁worden	-3297
▁schlecht	-3298
▁park	-3299
▁zahl	-3300
möglich	-3301
▁gedanken	-3302
opp	-3303
serv	-3304
ake	-3305
omat	-3306
▁milit	-3307
▁fühlen	-3308
▁international	-3309
▁conv	-3310
▁bringt	-3311
▁dingen	-3312
ima	-3313
cious	-3314
▁size	-3315
▁letzte	-3316
▁roboter	-3317
year	-3318
▁ord	-3319
▁oze	-3320
▁zehn	-3321
▁unten	-3322
▁friend	-3323
▁longer	-3324
▁anderer	-3325
ban	-3326
ikum	-3327
ined	-3328
▁stay	-3329
▁europe	-3330
▁arbeite	-3331
▁herausforder	-3332
idence	-3333
▁jungen	-3334
▁wochen	-3335
▁economic	-3336
▁sam	-3337
▁betrachten	-3338
▁intelligen	-3339
▁sicherheit	-3340
aren	-3341
▁sal	-3342
▁tin	-3343
▁muse	-3344
▁sold	-3345
▁tages	-3346
▁father	-3347
▁perfect	-3348
sto	-3349
text	-3350
▁gone	-3351
▁value	-3352
▁hervor	-3353
▁visual	-3354
▁box	-3355
▁enc	-3356
spiel	-3357
▁conc	-3358
▁geschäft	-3359
book	-3360
iale	-3361
▁bege	-3362
▁bereit	-3363
▁x	-3364
▁är	-3365
ände	-3366
▁expect	-3367
▁welches	-3368
rad	-3369
▁tö	-3370
kraft	-3371
▁ansch	-3372
▁hilfe	-3373
▁weitere	-3374
ther	-3375
▁afgh	-3376
▁hall	-3377
▁dream	-3378
▁white	-3379
▁direct	-3380
▁jedoch	-3381
▁modern	-3382
▁simply	-3383
▁staaten	-3384
cker	-3385
lungs	-3386
▁ther	-3387
▁erfahrung	-3388
▁et	-3389
ball	-3390
▁kat	-3391
fully	-3392
ledge	-3393
▁repl	-3394
▁eigene	-3395
▁needed	-3396
▁demokrat	-3397
▁verstand	-3398
▁key	-3399
▁surv	-3400
▁virt	-3401
▁force	-3402
▁scale	-3403
▁spent	-3404
▁zeich	-3405
▁gesicht	-3406
▁realized	-3407
▁gas	-3408
▁auth	-3409
▁tiere	-3410
▁either	-3411
▁meines	-3412
▁incredible	-3413
bau	-3414
▁bal	-3415
immen	-3416
▁prop	-3417
▁rock	-3418
▁grunde	-3419
rab	-3420
▁fert	-3421
▁tage	-3422
▁bekam	-3423
▁lesen	-3424
▁humans	-3425
▁sudden	-3426
▁kranken	-3427
of	-3428
urt	-3429
▁gren	-3430
▁slow	-3431
▁tried	-3432
▁special	-3433
tens	-3434
▁pal	-3435
▁markt	-3436
▁gemeinsam	-3437
ama	-3438
▁acht	-3439
▁rück	-3440
▁afghan	-3441
▁parents	-3442
zip	-3443
▁inse	-3444
▁support	-3445
▁position	-3446
bte	-3447
▁dark	-3448
▁erlau	-3449
▁cities	-3450
▁folgen	-3451
auso	-3452
ouch	-3453
bauen	-3454
reifen	-3455
elte	-3456
▁fahr	-3457
ources	-3458
izieren	-3459
▁detail	-3460
▁electric	-3461
ites	-3462
▁sea	-3463
indet	-3464
▁deren	-3465
▁schließlich	-3466
▁13	-3467
▁vill	-3468
▁statist	-3469
▁bür	-3470
▁übr	-3471
ently	-3472
▁plöt	-3473
ibility	-3474
▁quickly	-3475
▁funktionieren	-3476
▁risk	-3477
▁solche	-3478
▁temper	-3479
▁genauso	-3480
▁general	-3481
führen	-3482
▁mussten	-3483
▁individu	-3484
mm	-3485
▁feet	-3486
▁flow	-3487
▁hosp	-3488
▁scre	-3489
▁erinnern	-3490
▁ce	-3491
ktor	-3492
izing	-3493
ograf	-3494
▁emer	-3495
▁platz	-3496
▁umgeb	-3497
▁college	-3498
bor	-3499
▁lost	-3500
▁known	-3501
▁structure	-3502
ja	-3503
reg	-3504
▁aw	-3505
chsel	-3506
▁rand	-3507
▁camer	-3508
▁guten	-3509
▁zweite	-3510
▁ability	-3511
▁sitting	-3512
▁companies	-3513
bon	-3514
cts	-3515
▁prom	-3516
▁samm	-3517
annten	-3518
▁alter	-3519
▁block	-3520
▁europ	-3521
▁strong	-3522
▁wä	-3523
▁fish	-3524
▁path	-3525
▁raus	-3526
▁gescha	-3527
▁growth	-3528
▁zellen	-3529
▁pf	-3530
zung	-3531
▁hit	-3532
▁sek	-3533
▁süd	-3534
achst	-3535
▁gewor	-3536
antwort	-3537
▁surface	-3538
▁mars	-3539
▁medic	-3540
▁recogn	-3541
▁sollen	-3542
▁wouldn	-3543
▁compass	-3544
▁strateg	-3545
▁möglichkeiten	-3546
▁bur	-3547
▁farm	-3548
▁pull	-3549
wär	-3550
▁main	-3551
gefühl	-3552
ließen	-3553
▁consider	-3554
ried	-3555
usion	-3556
▁infr	-3557
▁rele	-3558
▁zuvor	-3559
▁zahlen	-3560
▁measure	-3561
▁sterben	-3562
▁version	-3563
▁gemeinschaft	-3564
▁akt	-3565
▁aben	-3566
▁reality	-3567
go	-3568
jähr	-3569
itter	-3570
▁caus	-3571
▁iran	-3572
▁woche	-3573
▁animal	-3574
▁einges	-3575
▁record	-3576
▁computers	-3577
▁zerst	-3578
▁kaufen	-3579
▁lösung	-3580
▁verwand	-3581
rote	-3582
▁hon	-3583
▁anzu	-3584
▁blog	-3585
▁jobs	-3586
▁fliegen	-3587
▁technologies	-3588
raum	-3589
▁draw	-3590
▁hast	-3591
▁führt	-3592
▁university	-3593
ips	-3594
ised	-3595
▁fear	-3596
fahren	-3597
▁beein	-3598
▁books	-3599
▁lösen	-3600
▁fragte	-3601
▁konzentr	-3602
▁boden	-3603
▁publikum	-3604
ilar	-3605
ynam	-3606
▁eat	-3607
▁hey	-3608
▁autos	-3609
▁danach	-3610
▁freunde	-3611
▁verbunden	-3612
▁erschaffen	-3613
▁individual	-3614
ains	-3615
inos	-3616
▁atm	-3617
itzen	-3618
▁nation	-3619
▁philos	-3620
▁schritt	-3621
▁serious	-3622
zer	-3623
▁201	-3624
stein	-3625
▁rein	-3626
▁requ	-3627
pression	-3628
▁economy	-3629
▁ähnlich	-3630
▁entscheiden	-3631
aul	-3632
lin	-3633
nal	-3634
▁pun	-3635
ächst	-3636
▁motiv	-3637
▁weeks	-3638
▁verschw	-3639
▁schwierig	-3640
▁compassion	-3641
put	-3642
▁21	-3643
gewö	-3644
▁benöt	-3645
▁blood	-3646
▁stage	-3647
▁morning	-3648
▁religion	-3649
▁political	-3650
▁verbindung	-3651
elbe	-3652
isse	-3653
▁eis	-3654
falls	-3655
zeigt	-3656
▁clos	-3657
ustain	-3658
▁moder	-3659
▁monate	-3660
▁wusste	-3661
zz	-3662
isst	-3663
ators	-3664
zeuge	-3665
▁arbeits	-3666
▁bleiben	-3667
arm	-3668
ght	-3669
kop	-3670
ußen	-3671
▁disc	-3672
▁ermö	-3673
▁wären	-3674
▁familien	-3675
▁opportunity	-3676
ko	-3677
ival	-3678
▁thema	-3679
▁growing	-3680
▁vortrag	-3681
▁tal	-3682
jekte	-3683
▁dead	-3684
▁ding	-3685
▁color	-3686
▁nimmt	-3687
▁schwe	-3688
▁brought	-3689
▁plötzlich	-3690
ouble	-3691
▁felt	-3692
▁fight	-3693
ills	-3694
▁born	-3695
nahmen	-3696
isieren	-3697
▁glücklich	-3698
▁nice	-3699
▁bevöl	-3700
▁civil	-3701
▁respons	-3702
▁gegenüber	-3703
imp	-3704
uth	-3705
▁sn	-3706
abor	-3707
alle	-3708
▁deg	-3709
▁flu	-3710
▁ice	-3711
▁spir	-3712
▁viol	-3713
▁instr	-3714
▁anyone	-3715
▁produkt	-3716
▁deut	-3717
▁bottom	-3718
▁modell	-3719
▁aussehen	-3720
▁vergleich	-3721
▁verantwort	-3722
ndon	-3723
gegen	-3724
▁based	-3725
▁islam	-3726
▁smart	-3727
▁wrote	-3728
▁entste	-3729
arbeitet	-3730
▁besteht	-3731
sichtlich	-3732
▁approach	-3733
▁knowledge	-3734
auft	-3735
▁tom	-3736
hören	-3737
▁links	-3738
▁miles	-3739
▁theory	-3740
▁völlig	-3741
▁draußen	-3742
▁patients	-3743
acy	-3744
▁effe	-3745
▁ihres	-3746
▁laufen	-3747
▁langsam	-3748
▁starting	-3749
▁meist	-3750
▁climate	-3751
▁wachsen	-3752
▁gefunden	-3753
▁wissenschaftler	-3754
erte	-3755
zellen	-3756
ai	-3757
▁ca	-3758
iant	-3759
▁mount	-3760
▁images	-3761
▁developed	-3762
▁potential	-3763
bol	-3764
▁ec	-3765
wirk	-3766
▁blick	-3767
▁ersch	-3768
▁christ	-3769
▁integr	-3770
weg	-3771
abil	-3772
idge	-3773
▁code	-3774
forsch	-3775
▁areas	-3776
▁impact	-3777
▁changes	-3778
▁feeling	-3779
omet	-3780
oten	-3781
▁tum	-3782
produ	-3783
▁namen	-3784
▁road	-3785
▁tools	-3786
▁zuerst	-3787
▁student	-3788
▁beschäft	-3789
▁mos	-3790
▁gives	-3791
▁manche	-3792
▁bekannt	-3793
rael	-3794
▁bist	-3795
▁allein	-3796
▁forward	-3797
eder	-3798
vent	-3799
▁gele	-3800
▁hung	-3801
▁micro	-3802
▁write	-3803
▁giving	-3804
▁möchten	-3805
▁similar	-3806
▁scientists	-3807
▁bom	-3808
▁flo	-3809
▁hör	-3810
▁webs	-3811
▁spread	-3812
igkeiten	-3813
▁künstler	-3814
ops	-3815
ived	-3816
▁lik	-3817
astru	-3818
licht	-3819
▁fair	-3820
gliche	-3821
▁scheint	-3822
▁überleben	-3823
jen	-3824
alien	-3825
▁pack	-3826
▁entdeck	-3827
▁development	-3828
ades	-3829
▁lay	-3830
▁favor	-3831
▁kolle	-3832
▁leicht	-3833
▁attention	-3834
▁blut	-3835
▁rede	-3836
▁altern	-3837
▁beginnt	-3838
▁unseres	-3839
▁erklären	-3840
▁positive	-3841
ils	-3842
oun	-3843
ove	-3844
ückt	-3845
▁bor	-3846
▁suchen	-3847
▁leaders	-3848
▁interact	-3849
▁24	-3850
ored	-3851
▁500	-3852
clear	-3853
▁dynam	-3854
▁größte	-3855
▁literally	-3856
äß	-3857
▁comb	-3858
▁fire	-3859
▁hine	-3860
ziehen	-3861
entially	-3862
kle	-3863
uit	-3864
ieten	-3865
▁aren	-3866
▁sell	-3867
kerung	-3868
▁seems	-3869
▁shape	-3870
prochen	-3871
▁gewesen	-3872
▁discovered	-3873
▁miteinander	-3874
▁ann	-3875
▁pur	-3876
ances	-3877
blick	-3878
ellow	-3879
hnung	-3880
▁technik	-3881
▁challenge	-3882
▁understanding	-3883
äuf	-3884
spro	-3885
▁uni	-3886
imens	-3887
▁rate	-3888
▁nacht	-3889
unehmen	-3890
▁english	-3891
▁numbers	-3892
ustr	-3893
▁arr	-3894
▁tie	-3895
▁unbe	-3896
▁wild	-3897
▁touch	-3898
▁minute	-3899
▁collect	-3900
▁größten	-3901
▁infrastru	-3902
▁erd	-3903
▁mitt	-3904
▁wahl	-3905
▁medik	-3906
▁israel	-3907
▁london	-3908
▁beeinfl	-3909
▁realize	-3910
wirtschaft	-3911
bi	-3912
mens	-3913
▁cars	-3914
▁reihe	-3915
▁stelle	-3916
▁nachdenken	-3917
▁technologien	-3918
ife	-3919
▁hü	-3920
schr	-3921
▁map	-3922
▁zug	-3923
▁erle	-3924
▁toll	-3925
▁except	-3926
▁terror	-3927
▁concept	-3928
▁erzählt	-3929
▁sustain	-3930
▁krankheit	-3931
pec	-3932
▁eye	-3933
▁lern	-3934
▁daraus	-3935
▁anstatt	-3936
▁average	-3937
▁ländern	-3938
▁tatsache	-3939
▁fur	-3940
organ	-3941
▁nahm	-3942
▁guess	-3943
▁herauszu	-3944
ieg	-3945
use	-3946
elten	-3947
stellt	-3948
▁blind	-3949
▁journal	-3950
▁anfangen	-3951
▁bewegung	-3952
▁las	-3953
atten	-3954
▁dein	-3955
▁stär	-3956
▁verbra	-3957
▁passieren	-3958
▁absolutely	-3959
reds	-3960
▁ira	-3961
▁girls	-3962
▁muster	-3963
▁niemals	-3964
▁physical	-3965
▁vergangen	-3966
▁institution	-3967
äss	-3968
hnen	-3969
▁sow	-3970
▁ernst	-3971
▁krieg	-3972
▁refle	-3973
▁anzahl	-3974
▁museum	-3975
▁sequen	-3976
▁gelernt	-3977
▁geworden	-3978
▁movement	-3979
ifor	-3980
äuft	-3981
▁curr	-3982
▁egal	-3983
▁ausge	-3984
▁polic	-3985
▁antwor	-3986
▁jemals	-3987
head	-3988
▁mache	-3989
▁hundreds	-3990
▁herr	-3991
▁größer	-3992
▁repres	-3993
▁bildung	-3994
▁running	-3995
▁transport	-3996
po	-3997
zw	-3998
aged	-3999
▁boy	-4000
▁lad	-4001
▁song	-4002
▁formen	-4003
▁gebaut	-4004
▁includ	-4005
▁medien	-4006
▁medical	-4007
ube	-4008
iforn	-4009
▁qual	-4010
iation	-4011
▁table	-4012
▁überw	-4013
erungen	-4014
▁genannt	-4015
▁kontroll	-4016
▁millions	-4017
▁developing	-4018
anda	-4019
oper	-4020
▁300	-4021
▁nord	-4022
▁sehe	-4023
isiert	-4024
▁aufre	-4025
▁cover	-4026
▁regen	-4027
▁island	-4028
▁nobody	-4029
▁meaning	-4030
▁playing	-4031
▁verloren	-4032
ends	-4033
ules	-4034
▁crit	-4035
▁chris	-4036
▁telling	-4037
▁designer	-4038
▁richtung	-4039
aw	-4040
pre	-4041
este	-4042
stre	-4043
▁lif	-4044
▁band	-4045
▁avail	-4046
▁meter	-4047
▁reise	-4048
cin	-4049
▁üb	-4050
alter	-4051
ester	-4052
▁empf	-4053
▁port	-4054
▁finger	-4055
▁kleiner	-4056
▁studenten	-4057
iod	-4058
wind	-4059
▁ton	-4060
▁disk	-4061
▁phone	-4062
▁chinese	-4063
▁recently	-4064
▁verwendet	-4065
pers	-4066
urity	-4067
▁benef	-4068
▁einfl	-4069
▁klima	-4070
▁teile	-4071
▁worth	-4072
▁sonnen	-4073
rum	-4074
▁op	-4075
▁tod	-4076
▁infl	-4077
▁brill	-4078
▁prinzip	-4079
▁afghanistan	-4080
gten	-4081
ified	-4082
roffen	-4083
sequen	-4084
▁beide	-4085
▁kleines	-4086
▁predict	-4087
bten	-4088
fahr	-4089
ploy	-4090
▁demon	-4091
▁preis	-4092
▁truth	-4093
▁gefähr	-4094
▁period	-4095
▁durchschnitt	-4096
▁soon	-4097
▁aufzu	-4098
▁intro	-4099
▁travel	-4100
▁industry	-4101
▁foto	-4102
▁showed	-4103
▁atmosph	-4104
▁gezeigt	-4105
▁network	-4106
iled	-4107
▁anw	-4108
▁est	-4109
merks	-4110
seite	-4111
▁aids	-4112
▁hinaus	-4113
▁histor	-4114
▁proper	-4115
▁solution	-4116
mut	-4117
itze	-4118
▁type	-4119
ctions	-4120
▁enorm	-4121
rel	-4122
uell	-4123
ented	-4124
zogen	-4125
gemein	-4126
zeitig	-4127
▁alone	-4128
▁knows	-4129
agieren	-4130
▁findet	-4131
▁creating	-4132
uh	-4133
▁anc	-4134
▁mex	-4135
lagen	-4136
phone	-4137
▁vorh	-4138
▁mitte	-4139
▁faszin	-4140
▁anybody	-4141
▁bekommt	-4142
▁stellte	-4143
▁entfernt	-4144
▁wahrheit	-4145
oon	-4146
res	-4147
ativ	-4148
▁sky	-4149
▁roll	-4150
▁sonst	-4151
▁partner	-4152
▁materials	-4153
▁pen	-4154
asing	-4155
▁jung	-4156
▁save	-4157
▁sever	-4158
▁fanden	-4159
▁früher	-4160
▁umgebung	-4161
▁obviously	-4162
▁vorstellung	-4163
▁jen	-4164
inder	-4165
zeugt	-4166
itäten	-4167
▁frank	-4168
▁benutzt	-4169
▁soziale	-4170
▁aufmerks	-4171
kehr	-4172
▁nar	-4173
▁east	-4174
▁norm	-4175
▁schü	-4176
▁haven	-4177
▁suggest	-4178
▁mitgefühl	-4179
hood	-4180
▁regel	-4181
▁sprach	-4182
▁talked	-4183
▁demonstr	-4184
kn	-4185
▁fail	-4186
▁among	-4187
▁neigh	-4188
▁peace	-4189
▁dimens	-4190
▁nachzu	-4191
ek	-4192
oes	-4193
win	-4194
lang	-4195
älfte	-4196
▁dram	-4197
▁meth	-4198
▁austr	-4199
▁mikro	-4200
▁trust	-4201
osystem	-4202
▁bürger	-4203
▁fahren	-4204
▁aufgabe	-4205
▁produce	-4206
▁incredibly	-4207
zte	-4208
ered	-4209
orge	-4210
krank	-4211
plant	-4212
teilt	-4213
▁tiny	-4214
setzen	-4215
▁distr	-4216
▁espec	-4217
▁graph	-4218
▁stark	-4219
▁lieben	-4220
▁veröff	-4221
▁especially	-4222
aß	-4223
▁ehr	-4224
▁fab	-4225
▁echt	-4226
ichtet	-4227
▁issue	-4228
ex	-4229
abet	-4230
onom	-4231
ragen	-4232
▁früh	-4233
▁aufmerksam	-4234
▁bey	-4235
▁pan	-4236
▁sle	-4237
▁suff	-4238
▁drive	-4239
▁finanz	-4240
▁available	-4241
ows	-4242
viel	-4243
▁tro	-4244
itation	-4245
▁becomes	-4246
▁richtige	-4247
auer	-4248
ston	-4249
▁inf	-4250
▁sche	-4251
▁wish	-4252
▁alten	-4253
▁games	-4254
▁speed	-4255
▁action	-4256
▁beyond	-4257
▁carbon	-4258
▁amerika	-4259
▁betrachte	-4260
▁forschung	-4261
änge	-4262
▁aufge	-4263
▁leist	-4264
▁niger	-4265
▁sofort	-4266
▁absolut	-4267
▁komplett	-4268
▁progress	-4269
▁happiness	-4270
▁entwicklungs	-4271
ties	-4272
ossen	-4273
▁männ	-4274
▁nine	-4275
▁schüt	-4276
▁office	-4277
▁meinung	-4278
ami	-4279
▁deb	-4280
▁kan	-4281
▁rom	-4282
▁zun	-4283
▁gold	-4284
ishing	-4285
▁dinos	-4286
▁kamer	-4287
▁security	-4288
▁conscious	-4289
mon	-4290
▁mr	-4291
ätze	-4292
▁def	-4293
▁motor	-4294
▁verbr	-4295
▁bakter	-4296
▁passion	-4297
▁subject	-4298
▁designed	-4299
▁jemanden	-4300
▁bedeutung	-4301
ny	-4302
▁1,	-4303
pens	-4304
▁ign	-4305
▁ske	-4306
▁vern	-4307
▁achie	-4308
▁entsp	-4309
▁bigger	-4310
▁fehler	-4311
▁please	-4312
▁stimme	-4313
▁richard	-4314
▁schrieb	-4315
▁philosoph	-4316
▁resources	-4317
hy	-4318
rift	-4319
▁tür	-4320
▁infe	-4321
▁einfache	-4322
▁versuche	-4323
gor	-4324
▁metho	-4325
▁bacter	-4326
▁extraord	-4327
ike	-4328
mus	-4329
racy	-4330
▁fem	-4331
▁ken	-4332
▁pil	-4333
▁nutz	-4334
▁basis	-4335
▁mögen	-4336
▁parad	-4337
▁hundred	-4338
▁reasons	-4339
▁erreicht	-4340
▁training	-4341
mung	-4342
▁fro	-4343
▁fuß	-4344
▁mis	-4345
▁arab	-4346
▁total	-4347
▁spricht	-4348
tr	-4349
iko	-4350
▁gt	-4351
▁inn	-4352
▁kal	-4353
uelle	-4354
▁died	-4355
▁heim	-4356
▁urspr	-4357
▁div	-4358
▁wann	-4359
▁schmer	-4360
▁symbol	-4361
fs	-4362
band	-4363
cial	-4364
ford	-4365
dlich	-4366
ussen	-4367
▁hell	-4368
▁strom	-4369
▁device	-4370
▁voraus	-4371
▁putting	-4372
▁lt	-4373
wohn	-4374
ziert	-4375
▁hoffe	-4376
▁groups	-4377
▁gegeben	-4378
▁writing	-4379
▁changing	-4380
ming	-4381
plan	-4382
uchs	-4383
▁fix	-4384
▁maß	-4385
utage	-4386
▁lief	-4387
gorith	-4388
▁größe	-4389
▁solve	-4390
▁geboren	-4391
▁genommen	-4392
▁standard	-4393
lim	-4394
ffee	-4395
schw	-4396
▁sob	-4397
▁bald	-4398
▁letzt	-4399
▁rolle	-4400
▁rules	-4401
▁tells	-4402
▁necess	-4403
▁brachte	-4404
▁pflanzen	-4405
▁interessiert	-4406
▁hot	-4407
ierend	-4408
▁kompl	-4409
▁ozean	-4410
▁sonne	-4411
▁schools	-4412
▁einfluss	-4413
▁hospital	-4414
▁interview	-4415
fre	-4416
ores	-4417
▁mist	-4418
▁vert	-4419
indern	-4420
isierung	-4421
▁washing	-4422
▁scientific	-4423
▁ere	-4424
▁voice	-4425
▁geschrieben	-4426
▁vereinigten	-4427
▁offensichtlich	-4428
osen	-4429
▁king	-4430
▁lived	-4431
▁stick	-4432
▁rechts	-4433
▁setzen	-4434
▁spirit	-4435
▁element	-4436
▁several	-4437
▁straßen	-4438
▁erwachsen	-4439
hre	-4440
urg	-4441
lage	-4442
arily	-4443
▁dien	-4444
▁fisch	-4445
achstum	-4446
jenigen	-4447
▁gingen	-4448
▁hälfte	-4449
▁irgende	-4450
▁website	-4451
▁übrigen	-4452
▁maschine	-4453
yl	-4454
ada	-4455
iple	-4456
wegen	-4457
ängen	-4458
▁heutz	-4459
▁radio	-4460
▁attack	-4461
▁hundert	-4462
▁pictures	-4463
▁heutzutage	-4464
▁veränderung	-4465
▁ök	-4466
vert	-4467
wood	-4468
▁lok	-4469
inner	-4470
▁capt	-4471
▁late	-4472
▁cross	-4473
▁ansehen	-4474
▁towards	-4475
▁village	-4476
▁einzelne	-4477
▁erschein	-4478
hör	-4479
ley	-4480
▁bee	-4481
▁ziehen	-4482
▁convers	-4483
▁gesamte	-4484
▁argument	-4485
asser	-4486
▁list	-4487
▁issues	-4488
▁verurs	-4489
▁further	-4490
▁involved	-4491
ham	-4492
room	-4493
▁tar	-4494
teten	-4495
▁enth	-4496
abhäng	-4497
▁sorgen	-4498
zustellen	-4499
▁evidence	-4500
▁intellig	-4501
▁oberfläche	-4502
feren	-4503
▁danger	-4504
▁stimmt	-4505
▁erkennt	-4506
▁politik	-4507
▁restaur	-4508
▁function	-4509
▁projects	-4510
▁particularly	-4511
back	-4512
rate	-4513
▁paul	-4514
▁clean	-4515
▁indeed	-4516
▁städte	-4517
▁tragen	-4518
▁hoffnung	-4519
▁suddenly	-4520
▁teachers	-4521
▁erfolgreich	-4522
▁herauszufinden	-4523
▁mü	-4524
adem	-4525
▁basic	-4526
▁const	-4527
▁schau	-4528
▁schulen	-4529
▁geschieht	-4530
how	-4531
sth	-4532
▁nennt	-4533
▁emotion	-4534
▁trotzdem	-4535
▁sus	-4536
▁dete	-4537
▁prakt	-4538
▁länger	-4539
▁facebook	-4540
▁weltweit	-4541
▁fähigkeiten	-4542
▁normalerweise	-4543
ify	-4544
ales	-4545
ieso	-4546
▁bot	-4547
▁nan	-4548
▁coun	-4549
▁track	-4550
▁zeige	-4551
▁sounds	-4552
▁präsent	-4553
▁chemical	-4554
atic	-4555
iber	-4556
▁lag	-4557
▁bang	-4558
▁gern	-4559
▁asking	-4560
▁verständ	-4561
▁character	-4562
esh	-4563
fel	-4564
ikel	-4565
krie	-4566
▁150	-4567
▁wol	-4568
ctors	-4569
ändig	-4570
hnliche	-4571
▁regeln	-4572
▁search	-4573
▁capital	-4574
▁deliver	-4575
▁machten	-4576
▁bestimmt	-4577
▁vergessen	-4578
bew	-4579
edia	-4580
iate	-4581
setz	-4582
▁400	-4583
ously	-4584
▁span	-4585
▁kannst	-4586
▁liegen	-4587
▁objekt	-4588
▁seiten	-4589
▁certainly	-4590
▁herausforderung	-4591
akes	-4592
▁grad	-4593
dessen	-4594
▁domin	-4595
▁bewegt	-4596
▁choice	-4597
▁hinein	-4598
▁spezie	-4599
▁starts	-4600
▁verlet	-4601
▁message	-4602
abl	-4603
sta	-4604
führ	-4605
▁mat	-4606
▁nahe	-4607
▁liber	-4608
▁bemerken	-4609
▁experien	-4610
▁hyp	-4611
▁laut	-4612
ichter	-4613
▁trial	-4614
▁papier	-4615
▁ergebnis	-4616
▁beziehung	-4617
umb	-4618
idem	-4619
satz	-4620
äfte	-4621
▁check	-4622
▁anyway	-4623
▁compet	-4624
ösen	-4625
▁anges	-4626
▁wants	-4627
▁algorith	-4628
lter	-4629
aring	-4630
▁zero	-4631
▁breat	-4632
▁europa	-4633
▁jahrze	-4634
▁protect	-4635
▁gesprochen	-4636
▁ah	-4637
ural	-4638
▁oxy	-4639
▁gang	-4640
▁neun	-4641
▁poll	-4642
▁tend	-4643
action	-4644
▁druck	-4645
ultural	-4646
▁gründe	-4647
▁schaut	-4648
▁symmet	-4649
▁industrie	-4650
▁everywhere	-4651
iers	-4652
▁dorf	-4653
▁separ	-4654
▁verfol	-4655
arbeiten	-4656
▁journey	-4657
▁mission	-4658
▁kontrolle	-4659
rü	-4660
aly	-4661
▁1.	-4662
▁mine	-4663
▁firma	-4664
▁dachten	-4665
▁examples	-4666
▁russ	-4667
▁skin	-4668
iction	-4669
ierungen	-4670
zeichnet	-4671
▁quality	-4672
▁anschauen	-4673
cen	-4674
ägt	-4675
itch	-4676
ometer	-4677
▁apart	-4678
▁birth	-4679
▁hinzu	-4680
▁traum	-4681
▁source	-4682
▁straße	-4683
▁realität	-4684
▁wichtige	-4685
icle	-4686
▁cam	-4687
▁käm	-4688
üssel	-4689
▁komp	-4690
uellen	-4691
▁finde	-4692
▁ready	-4693
▁sport	-4694
▁bücher	-4695
▁showing	-4696
▁nachrichten	-4697
▁gleichzeitig	-4698
▁aufmerksamkeit	-4699
legt	-4700
tter	-4701
▁notice	-4702
▁exciting	-4703
▁wichtiger	-4704
▁umf	-4705
▁lapt	-4706
lungen	-4707
▁plant	-4708
▁älter	-4709
agement	-4710
▁gruppen	-4711
▁beobachten	-4712
gru	-4713
wart	-4714
▁wik	-4715
▁berü	-4716
▁harv	-4717
esehen	-4718
lassen	-4719
nehmer	-4720
ändert	-4721
▁auszu	-4722
▁effic	-4723
▁ingen	-4724
glie	-4725
▁jud	-4726
▁tur	-4727
flict	-4728
▁lose	-4729
▁selts	-4730
▁afrikan	-4731
▁nuclear	-4732
▁walking	-4733
▁überras	-4734
mp	-4735
osh	-4736
itor	-4737
▁rap	-4738
▁rid	-4739
teile	-4740
▁foss	-4741
▁sele	-4742
▁totally	-4743
▁connected	-4744
▁democracy	-4745
like	-4746
▁blau	-4747
▁spaß	-4748
▁zeug	-4749
▁carry	-4750
▁begannen	-4751
▁medicine	-4752
▁übrigens	-4753
▁einzelnen	-4754
▁extraordinary	-4755
essed	-4756
▁bein	-4757
▁sent	-4758
▁glass	-4759
▁näher	-4760
▁batter	-4761
▁likely	-4762
▁screen	-4763
▁transl	-4764
▁biggest	-4765
▁arbeitet	-4766
▁schneller	-4767
lo	-4768
irm	-4769
ror	-4770
aking	-4771
▁onto	-4772
▁phen	-4773
▁moved	-4774
▁mental	-4775
▁sobald	-4776
▁industr	-4777
▁professor	-4778
▁bestimmten	-4779
fon	-4780
etic	-4781
▁ker	-4782
▁vac	-4783
verty	-4784
▁teen	-4785
▁gutes	-4786
bildung	-4787
erstoff	-4788
ikation	-4789
▁monaten	-4790
▁sozialen	-4791
▁fundamental	-4792
▁leidenschaft	-4793
▁swe	-4794
ables	-4795
icher	-4796
ätzen	-4797
▁wait	-4798
isions	-4799
others	-4800
tember	-4801
▁gebiet	-4802
▁complic	-4803
▁cat	-4804
▁baum	-4805
▁cook	-4806
▁gesp	-4807
▁trag	-4808
teilen	-4809
▁deine	-4810
▁monat	-4811
▁zumind	-4812
▁poverty	-4813
▁activity	-4814
▁nachhalt	-4815
▁menschheit	-4816
amin	-4817
ühne	-4818
▁gal	-4819
antly	-4820
artet	-4821
▁door	-4822
▁ress	-4823
▁sleep	-4824
▁großer	-4825
▁passierte	-4826
▁verlieren	-4827
▁demokratie	-4828
▁bevölkerung	-4829
dom	-4830
▁sä	-4831
erei	-4832
more	-4833
ength	-4834
▁burn	-4835
▁fill	-4836
schlag	-4837
▁studie	-4838
▁bessere	-4839
▁intelle	-4840
▁teacher	-4841
▁buildings	-4842
▁definition	-4843
▁eventually	-4844
▁gearbeitet	-4845
▁tv	-4846
lauf	-4847
▁rat	-4848
recht	-4849
▁base	-4850
▁grew	-4851
▁nerv	-4852
▁denkt	-4853
▁named	-4854
▁remark	-4855
▁konzept	-4856
▁richtigen	-4857
ky	-4858
ibr	-4859
zug	-4860
▁cit	-4861
▁wow	-4862
▁gehe	-4863
▁activ	-4864
▁urban	-4865
▁gesetz	-4866
▁perspect	-4867
▁möglichen	-4868
▁mathematik	-4869
isis	-4870
tell	-4871
ground	-4872
▁cause	-4873
▁fertig	-4874
▁physik	-4875
▁auswirk	-4876
▁gewinnen	-4877
▁extremely	-4878
▁öffentlich	-4879
▁universität	-4880
▁entscheidungen	-4881
▁hop	-4882
front	-4883
▁astr	-4884
▁cart	-4885
▁quad	-4886
▁camera	-4887
▁doctor	-4888
▁ernähr	-4889
▁molekü	-4890
▁return	-4891
ological	-4892
▁schreck	-4893
ickt	-4894
ieden	-4895
▁winz	-4896
hungen	-4897
▁freed	-4898
▁gerät	-4899
▁talks	-4900
▁geheim	-4901
▁imposs	-4902
▁landes	-4903
▁grenzen	-4904
▁studien	-4905
▁creative	-4906
▁verlassen	-4907
▁essentially	-4908
▁nachzudenken	-4909
ubl	-4910
nete	-4911
ragt	-4912
▁whe	-4913
▁rain	-4914
▁analy	-4915
▁genes	-4916
▁author	-4917
▁african	-4918
▁außerdem	-4919
▁zumindest	-4920
rage	-4921
▁etc	-4922
ivers	-4923
▁feuer	-4924
▁tagen	-4925
ruption	-4926
▁magnet	-4927
▁profit	-4928
▁objects	-4929
▁results	-4930
▁usually	-4931
▁wussten	-4932
▁collabor	-4933
▁continue	-4934
windigkeit	-4935
▁versuchte	-4936
▁interessante	-4937
▁atom	-4938
▁gewö	-4939
▁heut	-4940
▁mond	-4941
▁orte	-4942
▁safe	-4943
▁armut	-4944
▁immed	-4945
▁appear	-4946
▁großes	-4947
▁plants	-4948
▁square	-4949
▁zugang	-4950
▁watching	-4951
ius	-4952
come	-4953
ingu	-4954
plic	-4955
ulpt	-4956
▁bon	-4957
orben	-4958
▁angel	-4959
▁karte	-4960
▁sahen	-4961
▁trees	-4962
▁hunder	-4963
▁kreativ	-4964
asen	-4965
zahl	-4966
▁ext	-4967
ächen	-4968
▁heil	-4969
▁plat	-4970
▁push	-4971
ativen	-4972
weisen	-4973
▁brand	-4974
▁spect	-4975
▁trick	-4976
unately	-4977
▁analys	-4978
▁darwin	-4979
entliche	-4980
▁supposed	-4981
▁washington	-4982
▁electricity	-4983
▁produzieren	-4984
unt	-4985
▁gh	-4986
lern	-4987
ober	-4988
▁arme	-4989
▁clin	-4990
▁spre	-4991
gleich	-4992
▁franc	-4993
▁magic	-4994
▁older	-4995
▁quant	-4996
vention	-4997
▁sowohl	-4998
▁charles	-4999
▁zweiten	-5000
▁particip	-5001
▁verbessern	-5002
▁gesundheits	-5003
öst	-5004
▁sad	-5005
▁zufä	-5006
ourcen	-5007
▁movie	-5008
▁stamm	-5009
▁taten	-5010
▁wieso	-5011
▁brains	-5012
▁higher	-5013
▁member	-5014
▁micros	-5015
▁sitzen	-5016
▁threat	-5017
▁central	-5018
▁largest	-5019
▁nachbar	-5020
▁somewhere	-5021
asa	-5022
pfer	-5023
ramm	-5024
▁wör	-5025
▁page	-5026
▁above	-5027
▁magaz	-5028
isation	-5029
▁bleibt	-5030
▁series	-5031
▁dadurch	-5032
▁service	-5033
▁phenomen	-5034
▁products	-5035
▁geschehen	-5036
ca	-5037
▁ka	-5038
ikan	-5039
▁enj	-5040
masch	-5041
▁crow	-5042
▁haut	-5043
uchten	-5044
▁behau	-5045
▁report	-5046
▁context	-5047
▁private	-5048
▁conflict	-5049
▁beispiele	-5050
▁diejenigen	-5051
spe	-5052
tte	-5053
▁mad	-5054
▁luck	-5055
▁zivil	-5056
▁install	-5057
▁studies	-5058
▁represent	-5059
▁impossible	-5060
▁organization	-5061
▁35	-5062
▁kern	-5063
gendes	-5064
▁adult	-5065
▁bilden	-5066
▁larger	-5067
▁somehow	-5068
▁erzeugen	-5069
▁irgendwo	-5070
ests	-5071
▁amb	-5072
äumen	-5073
▁gewe	-5074
▁role	-5075
astrop	-5076
wissen	-5077
▁crazy	-5078
▁points	-5079
▁express	-5080
▁theorie	-5081
fore	-5082
gere	-5083
▁lehr	-5084
▁rund	-5085
▁babies	-5086
▁chines	-5087
▁continu	-5088
▁wechsel	-5089
▁tausende	-5090
ica	-5091
lei	-5092
here	-5093
lebr	-5094
wert	-5095
▁kür	-5096
odies	-5097
▁town	-5098
ission	-5099
▁forms	-5100
pensive	-5101
▁calcul	-5102
▁improv	-5103
▁account	-5104
▁introdu	-5105
▁unabhäng	-5106
▁entdecken	-5107
mann	-5108
▁tor	-5109
▁vul	-5110
wasser	-5111
▁meant	-5112
▁nenne	-5113
▁stars	-5114
▁surger	-5115
▁spezies	-5116
▁emotional	-5117
▁bewusstsein	-5118
tex	-5119
▁äu	-5120
▁cha	-5121
▁tel	-5122
eless	-5123
itung	-5124
▁2000	-5125
▁tour	-5126
ements	-5127
▁orten	-5128
▁shown	-5129
▁affect	-5130
▁models	-5131
▁policy	-5132
▁protot	-5133
▁erlaubt	-5134
▁gebracht	-5135
▁president	-5136
▁unmöglich	-5137
▁vergangenheit	-5138
rän	-5139
stet	-5140
▁site	-5141
▁vari	-5142
▁begri	-5143
▁citiz	-5144
▁sorts	-5145
▁synth	-5146
▁allowed	-5147
▁architecture	-5148
arf	-5149
bung	-5150
▁grü	-5151
▁tree	-5152
▁deter	-5153
▁molec	-5154
▁trade	-5155
▁signal	-5156
▁schüler	-5157
▁wirklichkeit	-5158
▁büro	-5159
▁fine	-5160
▁goal	-5161
▁wife	-5162
▁ended	-5163
▁gross	-5164
▁malar	-5165
▁zweit	-5166
▁killed	-5167
▁metaph	-5168
▁medikam	-5169
▁original	-5170
▁reaktion	-5171
▁signific	-5172
▁including	-5173
ara	-5174
weis	-5175
▁erg	-5176
▁lat	-5177
▁häuf	-5178
▁komb	-5179
▁sohn	-5180
▁angef	-5181
▁beauty	-5182
▁epidem	-5183
▁konsum	-5184
▁messen	-5185
▁voller	-5186
▁england	-5187
▁finding	-5188
▁francis	-5189
▁flugzeug	-5190
▁fotograf	-5191
▁personen	-5192
▁therefore	-5193
▁mc	-5194
▁wü	-5195
wick	-5196
atory	-5197
▁minds	-5198
▁content	-5199
▁excited	-5200
▁theater	-5201
legenheit	-5202
pfl	-5203
ählt	-5204
▁blo	-5205
▁addr	-5206
▁rece	-5207
▁waste	-5208
ierende	-5209
▁crisis	-5210
▁thanks	-5211
▁reading	-5212
▁aussieht	-5213
▁befinden	-5214
▁bakterien	-5215
▁nachricht	-5216
▁krankheiten	-5217
ery	-5218
▁pak	-5219
▁gift	-5220
▁lust	-5221
▁stol	-5222
▁assum	-5223
▁firmen	-5224
▁influen	-5225
▁verbinden	-5226
▁zusammenh	-5227
▁conditions	-5228
▁großartige	-5229
▁individuals	-5230
▁traditional	-5231
wür	-5232
▁45	-5233
▁nut	-5234
▁schö	-5235
▁berüh	-5236
▁abstra	-5237
▁secret	-5238
▁massive	-5239
▁western	-5240
▁bacteria	-5241
▁globalen	-5242
gra	-5243
hil	-5244
ille	-5245
ügen	-5246
▁bat	-5247
▁clim	-5248
ologen	-5249
▁truly	-5250
▁führte	-5251
▁indian	-5252
▁prison	-5253
▁ständig	-5254
▁neighbor	-5255
▁sprachen	-5256
▁standing	-5257
▁transpar	-5258
▁arbeitete	-5259
▁complicated	-5260
▁perspective	-5261
ika	-5262
imin	-5263
lier	-5264
▁för	-5265
inken	-5266
▁upon	-5267
werfen	-5268
▁attra	-5269
▁drugs	-5270
geführt	-5271
▁explor	-5272
▁intens	-5273
▁keiner	-5274
▁concern	-5275
▁constru	-5276
▁discuss	-5277
▁distrib	-5278
▁freedom	-5279
▁entweder	-5280
▁families	-5281
▁treatment	-5282
bil	-5283
dig	-5284
uls	-5285
ufen	-5286
▁bib	-5287
▁wün	-5288
▁thom	-5289
vision	-5290
▁posit	-5291
▁verst	-5292
schluss	-5293
schritt	-5294
▁convin	-5295
▁taught	-5296
▁videos	-5297
▁biology	-5298
▁gekommen	-5299
ios	-5300
lex	-5301
osm	-5302
▁od	-5303
isms	-5304
▁imm	-5305
▁purp	-5306
dimens	-5307
machen	-5308
▁außen	-5309
▁worte	-5310
▁dritte	-5311
▁einzig	-5312
▁therap	-5313
▁intelligent	-5314
kom	-5315
onse	-5316
play	-5317
▁flü	-5318
▁alte	-5319
▁rule	-5320
▁uner	-5321
▁ökon	-5322
indung	-5323
▁brief	-5324
▁faster	-5325
▁written	-5326
▁favorite	-5327
▁painting	-5328
▁vorstell	-5329
▁fantastic	-5330
▁communities	-5331
20	-5332
ael	-5333
abel	-5334
oods	-5335
ünft	-5336
▁dog	-5337
▁fit	-5338
verse	-5339
▁anti	-5340
▁golf	-5341
▁phän	-5342
ferenz	-5343
▁warten	-5344
▁plastic	-5345
▁aufgrund	-5346
▁erfahren	-5347
va	-5348
yle	-5349
ript	-5350
▁pet	-5351
▁erhö	-5352
▁tanz	-5353
▁alive	-5354
▁ebene	-5355
▁sinne	-5356
▁vielf	-5357
▁pieces	-5358
▁ursprün	-5359
▁humanity	-5360
▁ug	-5361
ises	-5362
ittel	-5363
ounds	-5364
äusch	-5365
stoffe	-5366
▁cheap	-5367
▁genom	-5368
▁höher	-5369
▁stock	-5370
▁tumor	-5371
▁networ	-5372
▁himself	-5373
▁neurons	-5374
▁herstellen	-5375
▁increasing	-5376
▁surprising	-5377
▁zit	-5378
ghter	-5379
▁bunch	-5380
▁lower	-5381
▁shift	-5382
▁muslim	-5383
izations	-5384
▁antworten	-5385
▁großartig	-5386
umm	-5387
▁ham	-5388
▁wil	-5389
▁alth	-5390
▁rise	-5391
assung	-5392
uments	-5393
▁bezug	-5394
▁gebra	-5395
▁konfl	-5396
▁price	-5397
▁worse	-5398
▁afford	-5399
▁celebr	-5400
▁ebenso	-5401
▁runter	-5402
▁ingenie	-5403
▁mention	-5404
▁riesige	-5405
▁welcher	-5406
▁einstein	-5407
▁response	-5408
▁expensive	-5409
▁amerikanischen	-5410
wa	-5411
han	-5412
ped	-5413
größ	-5414
uern	-5415
board	-5416
impan	-5417
throp	-5418
▁gere	-5419
▁board	-5420
▁genome	-5421
▁skills	-5422
▁malaria	-5423
▁michael	-5424
▁throughout	-5425
pret	-5426
▁ban	-5427
▁les	-5428
▁tax	-5429
ctive	-5430
▁höch	-5431
▁lebt	-5432
pected	-5433
▁assoc	-5434
▁dahin	-5435
▁fotos	-5436
▁fallen	-5437
▁passen	-5438
▁spielt	-5439
▁unfort	-5440
▁automat	-5441
▁details	-5442
▁although	-5443
▁dasselbe	-5444
▁straight	-5445
▁betrachtet	-5446
iot	-5447
len	-5448
ette	-5449
▁mas	-5450
▁mel	-5451
▁prä	-5452
ulate	-5453
volle	-5454
iately	-5455
▁hotel	-5456
▁myster	-5457
▁meeting	-5458
▁strange	-5459
▁einander	-5460
▁amerikaner	-5461
▁successful	-5462
▁entschieden	-5463
▁krankenhaus	-5464
ähig	-5465
▁bio	-5466
▁doc	-5467
▁ine	-5468
itude	-5469
▁desp	-5470
glicht	-5471
zimmer	-5472
▁angeb	-5473
▁gespr	-5474
▁hilft	-5475
▁hyper	-5476
ätzlich	-5477
▁depend	-5478
▁nahrung	-5479
▁außergewö	-5480
▁vertrauen	-5481
licherweise	-5482
hm	-5483
ka	-5484
ulf	-5485
▁arzt	-5486
▁kept	-5487
▁staat	-5488
ilities	-5489
ständig	-5490
▁satell	-5491
▁materie	-5492
▁sammeln	-5493
▁military	-5494
▁geschäfts	-5495
▁ermöglicht	-5496
▁verstanden	-5497
ags	-5498
hem	-5499
imal	-5500
iste	-5501
mode	-5502
attle	-5503
▁berg	-5504
▁krit	-5505
▁schr	-5506
▁bisher	-5507
▁famous	-5508
▁launch	-5509
▁earlier	-5510
▁notwend	-5511
▁smaller	-5512
▁entdeckt	-5513
ull	-5514
▁99	-5515
ding	-5516
▁sod	-5517
▁tiss	-5518
▁brust	-5519
▁subst	-5520
▁beings	-5521
▁fangen	-5522
▁invent	-5523
▁clearly	-5524
▁colleag	-5525
▁erklärt	-5526
▁genetic	-5527
▁physics	-5528
▁familiar	-5529
▁wundersch	-5530
▁ressourcen	-5531
mäß	-5532
äte	-5533
repr	-5534
▁fac	-5535
altet	-5536
uster	-5537
werke	-5538
▁prec	-5539
▁innen	-5540
▁linie	-5541
▁budget	-5542
▁schwarz	-5543
▁patterns	-5544
▁sekunden	-5545
▁recognize	-5546
▁grundlegen	-5547
do	-5548
dro	-5549
seits	-5550
▁höhe	-5551
▁shot	-5552
▁uses	-5553
▁bühne	-5554
▁cases	-5555
▁drink	-5556
▁financ	-5557
▁address	-5558
▁dritten	-5559
▁healthy	-5560
▁solchen	-5561
▁schlechte	-5562
▁schönheit	-5563
▁architektur	-5564
enz	-5565
mend	-5566
seit	-5567
riere	-5568
▁gras	-5569
ierter	-5570
▁throw	-5571
▁worry	-5572
▁choose	-5573
▁electr	-5574
▁himmel	-5575
▁rights	-5576
▁frieden	-5577
▁decision	-5578
▁entstand	-5579
▁gesamten	-5580
▁machines	-5581
▁ergebnisse	-5582
▁entscheidung	-5583
▁environmental	-5584
iat	-5585
wers	-5586
kommt	-5587
techn	-5588
ählen	-5589
▁läch	-5590
▁vict	-5591
icians	-5592
▁bedro	-5593
▁teles	-5594
▁actual	-5595
▁fascin	-5596
▁values	-5597
▁bestimmte	-5598
▁industrial	-5599
umen	-5600
gründ	-5601
iegel	-5602
▁card	-5603
▁denk	-5604
▁male	-5605
▁myth	-5606
▁costs	-5607
▁james	-5608
program	-5609
▁effort	-5610
ingungen	-5611
▁übertra	-5612
▁englisch	-5613
▁solutions	-5614
oke	-5615
uted	-5616
▁aid	-5617
▁kol	-5618
▁ran	-5619
▁sep	-5620
afrik	-5621
▁hart	-5622
▁princ	-5623
▁allows	-5624
▁employ	-5625
▁gefäng	-5626
▁wörter	-5627
▁gefragt	-5628
▁greater	-5629
▁befindet	-5630
▁freiheit	-5631
▁americans	-5632
▁geschaffen	-5633
ams	-5634
kam	-5635
etze	-5636
iding	-5637
ochen	-5638
▁auft	-5639
▁ausz	-5640
▁grav	-5641
▁kaum	-5642
▁kampf	-5643
▁occur	-5644
▁expand	-5645
▁herzen	-5646
▁selben	-5647
▁contrib	-5648
▁leisten	-5649
▁twitter	-5650
▁anywhere	-5651
▁außerhalb	-5652
▁listening	-5653
▁untersuchen	-5654
▁verständnis	-5655
bet	-5656
zwe	-5657
pend	-5658
▁dür	-5659
▁fen	-5660
▁abge	-5661
▁ausl	-5662
▁klin	-5663
▁mont	-5664
▁bedür	-5665
▁hände	-5666
▁könig	-5667
▁artist	-5668
▁seines	-5669
▁zeigte	-5670
▁handelt	-5671
▁zustand	-5672
▁invented	-5673
▁violence	-5674
▁interpret	-5675
bu	-5676
zi	-5677
col	-5678
kar	-5679
apes	-5680
iced	-5681
ners	-5682
änden	-5683
sweise	-5684
▁mächt	-5685
▁niedr	-5686
▁shoot	-5687
▁toile	-5688
▁divers	-5689
▁george	-5690
▁pakistan	-5691
▁wachstum	-5692
▁allgemein	-5693
bit	-5694
nam	-5695
pfe	-5696
buch	-5697
▁jul	-5698
▁veh	-5699
▁cold	-5700
▁jump	-5701
▁traf	-5702
ctures	-5703
stelle	-5704
▁farbe	-5705
▁invol	-5706
▁lines	-5707
▁river	-5708
▁unver	-5709
▁verme	-5710
▁forget	-5711
▁versor	-5712
▁describ	-5713
▁handeln	-5714
▁ordnung	-5715
▁provide	-5716
▁waiting	-5717
▁zunächst	-5718
▁dangerous	-5719
üss	-5720
▁atl	-5721
▁chir	-5722
▁hole	-5723
▁hält	-5724
▁naja	-5725
altung	-5726
indust	-5727
▁dance	-5728
ahrungs	-5729
▁nummer	-5730
▁beobach	-5731
▁comfort	-5732
▁existen	-5733
▁schmerz	-5734
▁bestehen	-5735
▁differen	-5736
▁electron	-5737
▁erzählte	-5738
▁phänomen	-5739
▁getroffen	-5740
▁interesse	-5741
▁production	-5742
▁intelligence	-5743
ätz	-5744
▁cry	-5745
▁kir	-5746
▁uhr	-5747
holen	-5748
ütter	-5749
▁party	-5750
▁anwend	-5751
▁geburt	-5752
▁robots	-5753
▁thomas	-5754
▁respect	-5755
▁critical	-5756
▁decisions	-5757
▁einkommen	-5758
▁september	-5759
▁behandlung	-5760
▁depression	-5761
la	-5762
iles	-5763
nost	-5764
▁ten	-5765
▁glam	-5766
▁none	-5767
▁wohn	-5768
▁immun	-5769
▁schne	-5770
▁store	-5771
▁ultim	-5772
reprene	-5773
▁leider	-5774
▁slight	-5775
▁spiele	-5776
▁walked	-5777
▁artikel	-5778
▁however	-5779
▁gestellt	-5780
▁herunter	-5781
▁verrückt	-5782
▁untersche	-5783
▁conference	-5784
▁engineering	-5785
alog	-5786
▁amp	-5787
▁bru	-5788
▁nüt	-5789
antic	-5790
ergie	-5791
reten	-5792
▁abend	-5793
▁absch	-5794
▁agric	-5795
▁final	-5796
▁prior	-5797
▁tisch	-5798
▁whose	-5799
teilung	-5800
▁income	-5801
▁current	-5802
▁driving	-5803
▁seconds	-5804
▁verkaufen	-5805
▁remarkable	-5806
▁conversation	-5807
hi	-5808
kur	-5809
stes	-5810
iesen	-5811
▁copy	-5812
▁dipl	-5813
▁isol	-5814
▁legs	-5815
▁effiz	-5816
▁hörte	-5817
▁match	-5818
▁method	-5819
▁remind	-5820
▁weight	-5821
▁anymore	-5822
▁gründen	-5823
▁surgery	-5824
▁klimawand	-5825
ya	-5826
▁kä	-5827
time	-5828
blich	-5829
hlung	-5830
iegen	-5831
äuser	-5832
▁hirn	-5833
keiten	-5834
rieden	-5835
▁enjoy	-5836
▁print	-5837
▁wikip	-5838
▁akzept	-5839
▁frustr	-5840
▁nieder	-5841
▁patent	-5842
▁ehrlich	-5843
▁einzigen	-5844
▁teaching	-5845
▁überrasch	-5846
▁fortschritt	-5847
▁auswirkungen	-5848
▁herausfinden	-5849
ims	-5850
▁tä	-5851
anke	-5852
ffic	-5853
scht	-5854
ured	-5855
▁hang	-5856
▁unge	-5857
ration	-5858
▁gradu	-5859
▁wesen	-5860
▁behaup	-5861
▁jahres	-5862
▁random	-5863
▁republ	-5864
▁methode	-5865
▁nigeria	-5866
▁protein	-5867
industrie	-5868
▁becoming	-5869
▁kollegen	-5870
▁politics	-5871
▁einfachen	-5872
▁connection	-5873
▁foundation	-5874
▁unglaubliche	-5875
ico	-5876
uck	-5877
ippe	-5878
ller	-5879
▁fat	-5880
▁biom	-5881
▁erne	-5882
▁fuel	-5883
▁hair	-5884
rochen	-5885
▁floor	-5886
brechen	-5887
schiede	-5888
▁balance	-5889
▁erstens	-5890
▁entreprene	-5891
▁instrument	-5892
▁landwirtschaft	-5893
vant	-5894
▁jan	-5895
▁mix	-5896
acity	-5897
▁gebe	-5898
▁moon	-5899
▁nasa	-5900
▁weib	-5901
▁läuft	-5902
▁suche	-5903
frieden	-5904
▁gehirns	-5905
▁bedeuten	-5906
▁deswegen	-5907
▁dinosaur	-5908
▁wunderbar	-5909
▁erstaunlich	-5910
▁performance	-5911
▁km	-5912
berg	-5913
▁baut	-5914
▁darf	-5915
▁slide	-5916
gesetzt	-5917
▁benutz	-5918
▁bezahl	-5919
▁entsch	-5920
▁retten	-5921
▁begeist	-5922
▁letztes	-5923
▁direction	-5924
▁experiments	-5925
▁immediately	-5926
▁unterstützen	-5927
▁0	-5928
ago	-5929
hes	-5930
pol	-5931
öse	-5932
will	-5933
▁cru	-5934
▁org	-5935
▁2008	-5936
▁jack	-5937
nungen	-5938
▁apple	-5939
▁diagn	-5940
▁encou	-5941
▁manip	-5942
▁bodies	-5943
▁flying	-5944
▁landsc	-5945
▁winter	-5946
▁schlimm	-5947
▁greatest	-5948
▁increase	-5949
▁services	-5950
▁zeitpunkt	-5951
zü	-5952
mark	-5953
rees	-5954
▁wis	-5955
▁äuß	-5956
entie	-5957
platz	-5958
stück	-5959
▁belo	-5960
▁task	-5961
▁chair	-5962
mitteln	-5963
▁decade	-5964
▁double	-5965
▁shared	-5966
▁stress	-5967
▁harvard	-5968
▁enormous	-5969
▁wikipedia	-5970
▁organisation	-5971
stä	-5972
stud	-5973
▁unf	-5974
▁vent	-5975
▁reser	-5976
▁sorry	-5977
entwick	-5978
ktionen	-5979
▁desert	-5980
▁dramat	-5981
▁mobile	-5982
▁worten	-5983
hnlichen	-5984
▁ausdruck	-5985
▁cultural	-5986
▁erfunden	-5987
▁erinnere	-5988
▁erwarten	-5989
car	-5990
hme	-5991
ikt	-5992
ress	-5993
▁mur	-5994
iling	-5995
leist	-5996
▁initi	-5997
▁osten	-5998
▁range	-5999
▁ereign	-6000
▁useful	-6001
▁networks	-6002
▁practice	-6003
anne	-6004
▁hus	-6005
▁adop	-6006
▁alex	-6007
▁boys	-6008
▁laws	-6009
antwor	-6010
▁armen	-6011
▁commer	-6012
▁klasse	-6013
gefunden	-6014
▁respond	-6015
▁willing	-6016
▁creativity	-6017
cr	-6018
ained	-6019
ients	-6020
▁poet	-6021
schirm	-6022
▁beweg	-6023
▁mobil	-6024
▁raise	-6025
▁kontin	-6026
▁punkte	-6027
▁saving	-6028
▁summer	-6029
▁globale	-6030
▁mehrere	-6031
▁hunderte	-6032
▁mountain	-6033
▁schicken	-6034
▁stattdessen	-6035
▁gek	-6036
ießen	-6037
▁gall	-6038
▁schm	-6039
▁wett	-6040
passen	-6041
▁concl	-6042
▁forth	-6043
▁ignor	-6044
▁weren	-6045
▁nahmen	-6046
▁police	-6047
▁sodass	-6048
arbeiter	-6049
▁popular	-6050
▁various	-6051
▁specific	-6052
▁following	-6053
▁television	-6054
▁temperature	-6055
▁mär	-6056
▁ros	-6057
▁tex	-6058
▁frem	-6059
▁hous	-6060
▁erfor	-6061
▁kreis	-6062
▁valle	-6063
barkeit	-6064
▁skelet	-6065
▁survive	-6066
▁lösungen	-6067
▁schützen	-6068
▁ebenfalls	-6069
▁angefangen	-6070
ieb	-6071
ray	-6072
▁ip	-6073
▁haw	-6074
▁intu	-6075
▁email	-6076
▁funny	-6077
▁ganzes	-6078
▁stunde	-6079
ierenden	-6080
▁untersuch	-6081
▁eigenschaften	-6082
▁unfortunately	-6083
ym	-6084
erk	-6085
rig	-6086
seh	-6087
redit	-6088
äsent	-6089
stehen	-6090
▁coast	-6091
▁erwäh	-6092
▁react	-6093
▁werte	-6094
▁bedürf	-6095
▁commit	-6096
▁unique	-6097
▁austral	-6098
▁schluss	-6099
▁stimmen	-6100
▁californ	-6101
▁financial	-6102
was	-6103
▁abzu	-6104
▁heat	-6105
▁kore	-6106
aterial	-6107
▁aussch	-6108
▁techni	-6109
▁verfüg	-6110
▁doctors	-6111
▁produkte	-6112
▁profound	-6113
▁wichtigste	-6114
▁beziehungen	-6115
▁jahrhunderts	-6116
ec	-6117
bur	-6118
gal	-6119
bahn	-6120
cies	-6121
▁inj	-6122
ilien	-6123
▁budd	-6124
▁ahead	-6125
▁types	-6126
▁selten	-6127
▁status	-6128
▁zeiten	-6129
▁systeme	-6130
▁marketing	-6131
▁operation	-6132
▁öffentlichen	-6133
eth	-6134
onie	-6135
apher	-6136
▁auge	-6137
▁beit	-6138
▁cust	-6139
▁held	-6140
▁jene	-6141
▁leid	-6142
▁wire	-6143
annien	-6144
atives	-6145
▁beruf	-6146
▁broad	-6147
▁cloud	-6148
▁fällt	-6149
▁abhäng	-6150
▁accept	-6151
▁ahnung	-6152
▁helped	-6153
▁gedacht	-6154
▁kulture	-6155
▁tremend	-6156
▁speaking	-6157
▁brilliant	-6158
▁condition	-6159
▁kilometer	-6160
▁regierungen	-6161
▁konzentrieren	-6162
ceed	-6163
piel	-6164
▁194	-6165
▁pig	-6166
aging	-6167
anter	-6168
bewer	-6169
hilfe	-6170
▁erfü	-6171
▁weap	-6172
▁liste	-6173
▁loved	-6174
▁steve	-6175
▁versp	-6176
▁levels	-6177
▁robert	-6178
▁telefon	-6179
▁trouble	-6180
▁citizens	-6181
▁netzwerk	-6182
▁projekte	-6183
▁societies	-6184
▁understood	-6185
▁materialien	-6186
ih	-6187
iete	-6188
pack	-6189
▁dur	-6190
ining	-6191
orien	-6192
unsch	-6193
▁birds	-6194
▁guter	-6195
haltung	-6196
▁descri	-6197
▁effekt	-6198
▁mostly	-6199
▁schlag	-6200
▁evolved	-6201
▁directly	-6202
▁possibly	-6203
▁produced	-6204
geschichte	-6205
▁institutions	-6206
▁consciousness	-6207
hib	-6208
ieß	-6209
cope	-6210
▁hem	-6211
▁van	-6212
zusch	-6213
▁tests	-6214
▁farben	-6215
▁flight	-6216
▁forces	-6217
▁heutigen	-6218
▁nahrungs	-6219
▁behandeln	-6220
▁einzigart	-6221
key	-6222
tube	-6223
▁jün	-6224
wärts	-6225
▁dopp	-6226
▁fett	-6227
▁frag	-6228
▁hero	-6229
▁hört	-6230
▁surr	-6231
▁autor	-6232
▁below	-6233
▁echte	-6234
▁klass	-6235
▁laden	-6236
▁gering	-6237
▁german	-6238
▁kamera	-6239
▁meeres	-6240
▁rechte	-6241
▁schutz	-6242
▁inspired	-6243
▁francisco	-6244
▁alternative	-6245
▁herzustellen	-6246
▁23	-6247
▁dok	-6248
▁fok	-6249
▁que	-6250
iated	-6251
ufact	-6252
▁ausw	-6253
▁grün	-6254
▁aware	-6255
▁insel	-6256
▁liebl	-6257
▁triff	-6258
ierungs	-6259
▁active	-6260
▁career	-6261
▁disapp	-6262
▁empath	-6263
▁fellow	-6264
▁studio	-6265
▁effects	-6266
▁extreme	-6267
▁plastik	-6268
▁biologie	-6269
▁negative	-6270
▁california	-6271
▁medikamente	-6272
▁veränderungen	-6273
brit	-6274
chem	-6275
hler	-6276
lose	-6277
usch	-6278
dings	-6279
▁glas	-6280
▁apply	-6281
▁brown	-6282
▁legen	-6283
▁multi	-6284
▁sympt	-6285
▁veran	-6286
▁destro	-6287
▁freude	-6288
▁golden	-6289
▁massen	-6290
▁wealth	-6291
▁respekt	-6292
▁charakter	-6293
▁institute	-6294
▁sustainable	-6295
maß	-6296
atte	-6297
▁ren	-6298
▁zuh	-6299
arter	-6300
▁recy	-6301
▁wege	-6302
anning	-6303
▁catch	-6304
▁gehir	-6305
▁ideal	-6306
ologist	-6307
zugehen	-6308
▁forest	-6309
▁öffnen	-6310
minister	-6311
▁conserv	-6312
▁erzeugt	-6313
▁purpose	-6314
▁youtube	-6315
▁größeren	-6316
▁jemandem	-6317
▁zweitens	-6318
▁effective	-6319
▁maschinen	-6320
▁profession	-6321
▁restaurant	-6322
val	-6323
▁py	-6324
aign	-6325
hnte	-6326
thin	-6327
cules	-6328
right	-6329
▁beat	-6330
▁gent	-6331
▁mand	-6332
▁note	-6333
▁fluss	-6334
▁offic	-6335
▁photo	-6336
▁demand	-6337
▁wenige	-6338
▁eigenes	-6339
▁erleben	-6340
▁militär	-6341
▁campaign	-6342
▁gegangen	-6343
▁manufact	-6344
▁terrible	-6345
▁gefängnis	-6346
▁werkzeuge	-6347
▁challenges	-6348
▁inspiration	-6349
ibe	-6350
org	-6351
prü	-6352
▁drop	-6353
▁heav	-6354
selben	-6355
▁autom	-6356
▁beach	-6357
▁oppos	-6358
▁westen	-6359
▁ancient	-6360
▁bestand	-6361
▁geschah	-6362
▁markets	-6363
▁rechten	-6364
▁bringing	-6365
▁feedback	-6366
britannien	-6367
▁irgendein	-6368
▁scientist	-6369
▁verbringen	-6370
▁governments	-6371
▁verantwortung	-6372
ino	-6373
geht	-6374
izes	-6375
▁ame	-6376
▁dol	-6377
▁scr	-6378
arian	-6379
▁bele	-6380
▁bush	-6381
▁flex	-6382
▁stan	-6383
stände	-6384
▁strug	-6385
▁surve	-6386
▁weiss	-6387
▁zusch	-6388
▁beeind	-6389
▁hypoth	-6390
▁jugend	-6391
▁laptop	-6392
▁supply	-6393
▁valley	-6394
▁explore	-6395
▁prevent	-6396
▁consequen	-6397
▁entschied	-6398
▁wichtigsten	-6399
iest	-6400
ires	-6401
▁mig	-6402
aries	-6403
gaben	-6404
inter	-6405
▁koll	-6406
▁könnt	-6407
▁seien	-6408
▁twice	-6409
▁compon	-6410
▁decide	-6411
▁dunkel	-6412
▁erfahr	-6413
▁langen	-6414
▁vorbei	-6415
▁artists	-6416
▁knochen	-6417
▁elektron	-6418
▁erlauben	-6419
▁geograph	-6420
bank	-6421
ährt	-6422
light	-6423
rifft	-6424
▁halb	-6425
▁merk	-6426
imeter	-6427
liegen	-6428
▁hinge	-6429
▁bought	-6430
▁cooper	-6431
▁frühen	-6432
▁honest	-6433
▁lernte	-6434
▁tieren	-6435
▁waffen	-6436
▁sharing	-6437
▁folgendes	-6438
▁verhaltens	-6439
▁experimente	-6440
ax	-6441
räge	-6442
wise	-6443
▁sou	-6444
etzte	-6445
maßen	-6446
blemen	-6447
▁horiz	-6448
▁komme	-6449
ception	-6450
▁causes	-6451
▁medium	-6452
▁oxygen	-6453
▁photos	-6454
▁played	-6455
▁endlich	-6456
▁privile	-6457
▁instance	-6458
▁existiert	-6459
▁kreativität	-6460
ete	-6461
rew	-6462
vin	-6463
▁hydro	-6464
▁10,000	-6465
▁coffee	-6466
▁haupts	-6467
▁sommer	-6468
▁trifft	-6469
▁fenster	-6470
▁focused	-6471
▁kapital	-6472
▁kontakt	-6473
▁schrift	-6474
▁begonnen	-6475
▁metaphor	-6476
▁verfügung	-6477
▁complexity	-6478
▁zusammenhang	-6479
▁infrastructure	-6480
elf	-6481
▁dh	-6482
ancy	-6483
▁jer	-6484
▁joy	-6485
▁spl	-6486
▁unc	-6487
▁wal	-6488
örung	-6489
▁habt	-6490
▁harm	-6491
▁cyber	-6492
▁frame	-6493
▁lasst	-6494
▁neuer	-6495
▁smell	-6496
▁teams	-6497
▁typen	-6498
▁bitten	-6499
▁closer	-6500
▁fühlte	-6501
▁garden	-6502
▁vermut	-6503
▁vulner	-6504
▁gefühle	-6505
▁tochter	-6506
▁capacity	-6507
▁neuronen	-6508
▁entstehen	-6509
▁biological	-6510
▁beeinflusst	-6511
▁erfahrungen	-6512
▁komplexität	-6513
▁communication	-6514
ech	-6515
ammt	-6516
ench	-6517
▁wid	-6518
cting	-6519
mente	-6520
stero	-6521
▁lack	-6522
▁sick	-6523
schutz	-6524
▁prize	-6525
ulieren	-6526
ognitive	-6527
▁decades	-6528
▁dorthin	-6529
▁größere	-6530
▁konstru	-6531
▁verhält	-6532
▁slightly	-6533
▁spending	-6534
▁designers	-6535
▁repräsent	-6536
▁sicherlich	-6537
▁geschwindigkeit	-6538
30	-6539
esis	-6540
othe	-6541
weil	-6542
▁cro	-6543
▁rit	-6544
▁sir	-6545
▁vag	-6546
▁wär	-6547
gency	-6548
water	-6549
▁eure	-6550
ennung	-6551
ielten	-6552
▁rough	-6553
▁nerven	-6554
▁resist	-6555
▁schöne	-6556
▁spitze	-6557
▁wählen	-6558
▁yellow	-6559
▁devices	-6560
▁diseases	-6561
▁fernsehen	-6562
▁molecules	-6563
▁großbritannien	-6564
▁fo	-6565
▁alph	-6566
▁warm	-6567
illion	-6568
▁bäume	-6569
▁eröff	-6570
▁wohin	-6571
▁zelle	-6572
▁astero	-6573
▁breast	-6574
▁gather	-6575
▁tissue	-6576
▁pressure	-6577
▁gelegenheit	-6578
▁infrastruktur	-6579
bü	-6580
utt	-6581
▁ält	-6582
▁iraq	-6583
treten	-6584
▁condu	-6585
▁titel	-6586
▁ärzte	-6587
▁academ	-6588
▁erstes	-6589
▁reform	-6590
▁depress	-6591
▁workers	-6592
▁nächstes	-6593
▁geschafft	-6594
▁sauerstoff	-6595
▁investieren	-6596
ume	-6597
▁22	-6598
▁daß	-6599
▁saf	-6600
▁bomb	-6601
▁kauf	-6602
▁mort	-6603
▁term	-6604
afrika	-6605
▁adapt	-6606
▁digit	-6607
▁shock	-6608
▁tolle	-6609
▁worst	-6610
▁hunger	-6611
▁kompon	-6612
▁memory	-6613
▁entlang	-6614
▁erinnert	-6615
▁freunden	-6616
▁surround	-6617
▁einfacher	-6618
▁atmosphere	-6619
▁produziert	-6620
▁unterschiede	-6621
sk	-6622
▁2.	-6623
inct	-6624
ähle	-6625
üsse	-6626
▁gun	-6627
▁pac	-6628
achte	-6629
bruch	-6630
ichen	-6631
▁feld	-6632
▁ließ	-6633
▁müll	-6634
▁race	-6635
▁desto	-6636
▁unbed	-6637
▁wirst	-6638
▁custom	-6639
▁einsch	-6640
▁grunds	-6641
▁kostet	-6642
▁master	-6643
▁stabil	-6644
▁answers	-6645
▁degrees	-6646
▁zentrum	-6647
▁gewonnen	-6648
▁architect	-6649
▁ermöglichen	-6650
rt	-6651
angt	-6652
chnen	-6653
markt	-6654
▁fash	-6655
▁loss	-6656
▁mart	-6657
▁puzz	-6658
vollen	-6659
▁bread	-6660
▁calls	-6661
▁fühle	-6662
▁hielt	-6663
▁kennt	-6664
▁somit	-6665
▁analog	-6666
▁eating	-6667
▁fällen	-6668
▁häufig	-6669
▁polize	-6670
▁unsicht	-6671
▁daughter	-6672
▁weiterhin	-6673
▁tremendous	-6674
gin	-6675
rom	-6676
tech	-6677
aling	-6678
anced	-6679
appen	-6680
icket	-6681
orfen	-6682
stadt	-6683
▁aufw	-6684
▁evol	-6685
▁loch	-6686
▁peng	-6687
▁prep	-6688
▁seas	-6689
▁fühlt	-6690
▁nehme	-6691
▁phase	-6692
▁polio	-6693
▁broken	-6694
▁dienst	-6695
▁gotten	-6696
▁kohlen	-6697
▁pollen	-6698
▁rücken	-6699
ktivität	-6700
zunehmen	-6701
▁entfern	-6702
▁foreign	-6703
▁hearing	-6704
▁spreche	-6705
▁verbindungen	-6706
,5	-6707
ela	-6708
aker	-6709
roll	-6710
taus	-6711
▁250	-6712
endes	-6713
▁cult	-6714
▁holz	-6715
▁paid	-6716
▁plus	-6717
▁todes	-6718
▁besuch	-6719
▁boston	-6720
▁gentle	-6721
▁norden	-6722
maschine	-6723
▁karriere	-6724
▁partners	-6725
▁schlüssel	-6726
▁kontrollieren	-6727
di	-6728
za	-6729
icles	-6730
▁chic	-6731
▁enter	-6732
▁leads	-6733
▁bridge	-6734
▁drehen	-6735
▁reicht	-6736
▁beschre	-6737
▁einsatz	-6738
▁perfekt	-6739
▁magazine	-6740
▁modernen	-6741
▁politische	-6742
oge	-6743
pos	-6744
xim	-6745
▁ax	-6746
▁zo	-6747
load	-6748
term	-6749
üben	-6750
▁row	-6751
ratic	-6752
setzt	-6753
alität	-6754
gebaut	-6755
izität	-6756
▁appar	-6757
▁corre	-6758
▁ansatz	-6759
▁applic	-6760
▁church	-6761
▁notion	-6762
▁window	-6763
verständ	-6764
▁begriff	-6765
▁creates	-6766
▁fashion	-6767
▁klassen	-6768
▁brauchte	-6769
▁controll	-6770
▁minister	-6771
▁riesigen	-6772
▁irgendwann	-6773
▁aufgenommen	-6774
▁communicate	-6775
▁differences	-6776
▁entwicklungsl	-6777
▁gesellschaften	-6778
▁ol	-6779
cell	-6780
hyth	-6781
ogel	-6782
▁sar	-6783
house	-6784
schte	-6785
▁hind	-6786
▁nähe	-6787
formen	-6788
▁dying	-6789
▁legal	-6790
▁paris	-6791
▁stolz	-6792
▁visit	-6793
istisch	-6794
▁beteil	-6795
▁corner	-6796
▁wunsch	-6797
▁improve	-6798
▁nations	-6799
▁benötigen	-6800
▁konferenz	-6801
▁präsident	-6802
▁published	-6803
▁allerdings	-6804
▁temperatur	-6805
▁verursacht	-6806
▁überzeugen	-6807
deut	-6808
erin	-6809
feld	-6810
▁bub	-6811
▁pip	-6812
andid	-6813
print	-6814
ätsel	-6815
▁2010	-6816
▁allt	-6817
▁vast	-6818
▁agree	-6819
▁haiti	-6820
▁trend	-6821
pektive	-6822
▁lights	-6823
▁physic	-6824
▁ökonom	-6825
zeichnen	-6826
▁british	-6827
▁dagegen	-6828
▁dennoch	-6829
▁farmers	-6830
▁noticed	-6831
▁station	-6832
▁wahrneh	-6833
▁erforsch	-6834
▁werkzeug	-6835
▁botschaft	-6836
▁ecosystem	-6837
▁commercial	-6838
▁universums	-6839
▁imagination	-6840
▁klimawandel	-6841
▁politischen	-6842
▁kommunikation	-6843
sa	-6844
nde	-6845
dete	-6846
gust	-6847
keln	-6848
apped	-6849
aters	-6850
heben	-6851
ichts	-6852
istry	-6853
ollar	-6854
▁1990	-6855
▁geme	-6856
▁libr	-6857
usagen	-6858
▁explos	-6859
▁origin	-6860
▁seemed	-6861
▁senten	-6862
▁weltwe	-6863
▁genutzt	-6864
▁kämpfen	-6865
▁virtual	-6866
▁gemeinde	-6867
▁wiederum	-6868
▁katastrop	-6869
▁reagieren	-6870
▁ökosystem	-6871
▁erforschen	-6872
▁phenomenon	-6873
▁responsibility	-6874
edy	-6875
pft	-6876
talk	-6877
▁gig	-6878
aught	-6879
eline	-6880
führt	-6881
hlten	-6882
▁2005	-6883
▁graf	-6884
▁iron	-6885
▁komm	-6886
▁spot	-6887
▁expon	-6888
▁roten	-6889
▁stein	-6890
▁bienen	-6891
▁selber	-6892
▁frequen	-6893
▁helping	-6894
▁mitglie	-6895
▁benötigt	-6896
▁colleagues	-6897
▁hoffentlich	-6898
▁wunderschön	-6899
▁kö	-6900
nden	-6901
prof	-6902
rupt	-6903
▁aust	-6904
modell	-6905
▁emiss	-6906
▁feels	-6907
▁giant	-6908
▁töten	-6909
▁easily	-6910
▁expert	-6911
▁risiko	-6912
▁strand	-6913
▁switch	-6914
▁definit	-6915
▁members	-6916
▁planets	-6917
▁vorhers	-6918
▁aufgaben	-6919
▁großteil	-6920
▁independ	-6921
▁studying	-6922
▁sozusagen	-6923
dimensional	-6924
▁significant	-6925
▁unternehmer	-6926
▁letztendlich	-6927
cop	-6928
dert	-6929
itzt	-6930
leun	-6931
▁bul	-6932
▁kit	-6933
etwas	-6934
▁fach	-6935
▁rare	-6936
▁1,000	-6937
▁kenne	-6938
▁prost	-6939
▁highly	-6940
▁nearly	-6941
▁reisen	-6942
▁target	-6943
▁werfen	-6944
▁achieve	-6945
▁chicago	-6946
▁display	-6947
▁schafft	-6948
▁stecken	-6949
▁addition	-6950
▁beantwor	-6951
▁eingesch	-6952
▁programs	-6953
▁möglicherweise	-6954
ida	-6955
iop	-6956
▁ts	-6957
lege	-6958
pped	-6959
ques	-6960
ring	-6961
▁emb	-6962
chern	-6963
idung	-6964
▁brot	-6965
▁flor	-6966
▁jeff	-6967
▁tens	-6968
brauch	-6969
▁davor	-6970
▁mouth	-6971
▁surge	-6972
zwischen	-6973
▁berechn	-6974
▁buchstä	-6975
▁streets	-6976
▁turning	-6977
▁astronom	-6978
▁verkauft	-6979
▁diversity	-6980
▁particles	-6981
▁religious	-6982
▁vollkommen	-6983
▁organizations	-6984
dy	-6985
pa	-6986
bie	-6987
oft	-6988
used	-6989
▁000	-6990
▁shr	-6991
▁ille	-6992
▁irak	-6993
▁meas	-6994
▁wass	-6995
ktoren	-6996
▁begeg	-6997
▁disor	-6998
▁dreht	-6999
▁masse	-7000
▁obama	-7001
▁popul	-7002
▁charge	-7003
▁kunden	-7004
▁meilen	-7005
▁spaces	-7006
▁sterne	-7007
▁paradig	-7008
▁gefangen	-7009
▁landscape	-7010
▁intelligenz	-7011
aff	-7012
ias	-7013
kan	-7014
aced	-7015
dien	-7016
quit	-7017
sinn	-7018
spap	-7019
▁dün	-7020
▁fer	-7021
▁nöt	-7022
▁saß	-7023
▁zut	-7024
based	-7025
▁fold	-7026
apping	-7027
dollar	-7028
umente	-7029
▁einzu	-7030
▁klang	-7031
▁veget	-7032
▁änder	-7033
▁clever	-7034
▁iphone	-7035
▁reduce	-7036
▁schaff	-7037
▁verwir	-7038
▁choices	-7039
▁knowing	-7040
▁relativ	-7041
▁stellten	-7042
▁vielfalt	-7043
ypt	-7044
▁oly	-7045
▁sem	-7046
krebs	-7047
mögen	-7048
▁bran	-7049
▁einfü	-7050
▁fragt	-7051
▁treib	-7052
änglich	-7053
▁ancest	-7054
▁sexual	-7055
▁moments	-7056
▁recover	-7057
▁sekunde	-7058
▁efficient	-7059
▁natürliche	-7060
▁beschäftigt	-7061
▁necessarily	-7062
abt	-7063
ota	-7064
yed	-7065
▁tu	-7066
baut	-7067
gern	-7068
iety	-7069
ulen	-7070
conne	-7071
haben	-7072
krieg	-7073
point	-7074
▁forg	-7075
▁halt	-7076
▁wald	-7077
aining	-7078
▁attem	-7079
▁habit	-7080
▁olymp	-7081
wechsel	-7082
▁aspect	-7083
▁diabet	-7084
▁drogen	-7085
▁religi	-7086
▁derzeit	-7087
▁forever	-7088
▁stopped	-7089
▁zuhause	-7090
▁dieselbe	-7091
▁insekten	-7092
▁erstellen	-7093
▁investment	-7094
▁management	-7095
▁hintergrund	-7096
▁possibility	-7097
▁opportunities	-7098
▁zusammenarbeit	-7099
tes	-7100
eler	-7101
fter	-7102
▁obs	-7103
▁pas	-7104
mmern	-7105
▁neug	-7106
▁verf	-7107
▁crash	-7108
▁dauer	-7109
▁halte	-7110
▁paint	-7111
▁repor	-7112
▁schäd	-7113
▁titan	-7114
ivalent	-7115
▁passed	-7116
▁presen	-7117
▁versus	-7118
▁brother	-7119
▁diskuss	-7120
▁glamour	-7121
▁worüber	-7122
▁gewissen	-7123
▁verdienen	-7124
▁ausbildung	-7125
▁beeinflussen	-7126
▁relationships	-7127
▁herausgefunden	-7128
▁gps	-7129
▁nav	-7130
▁zuk	-7131
eller	-7132
losen	-7133
▁appl	-7134
▁ehem	-7135
▁reve	-7136
▁tank	-7137
schule	-7138
▁accom	-7139
▁brenn	-7140
▁faces	-7141
▁fully	-7142
▁gaben	-7143
▁noise	-7144
▁peter	-7145
▁hinweg	-7146
▁lautet	-7147
▁linken	-7148
▁despite	-7149
▁figured	-7150
▁fleisch	-7151
▁geführt	-7152
▁missing	-7153
▁männern	-7154
▁vorbere	-7155
▁structures	-7156
▁differently	-7157
apse	-7158
idet	-7159
verb	-7160
▁bow	-7161
▁nov	-7162
▁stem	-7163
wohner	-7164
▁chaos	-7165
zeichen	-7166
▁bauern	-7167
▁begren	-7168
▁brings	-7169
▁corpor	-7170
▁french	-7171
▁klingt	-7172
▁sculpt	-7173
▁ändert	-7174
▁objekte	-7175
▁tausend	-7176
▁zukünft	-7177
▁emotions	-7178
▁gelangen	-7179
▁discovery	-7180
▁intellect	-7181
▁ultimately	-7182
▁vollständig	-7183
▁buchstäblich	-7184
▁entwickelten	-7185
▁interessanter	-7186
▁kommunizieren	-7187
▁transformation	-7188
ded	-7189
iens	-7190
onds	-7191
wide	-7192
▁avo	-7193
▁err	-7194
▁join	-7195
▁schu	-7196
▁spür	-7197
▁wein	-7198
▁wide	-7199
▁grass	-7200
▁lucky	-7201
jährige	-7202
▁accord	-7203
▁female	-7204
▁fossil	-7205
▁kurzem	-7206
▁rätsel	-7207
istische	-7208
jährigen	-7209
ologists	-7210
▁steigen	-7211
ification	-7212
▁deutlich	-7213
▁qualität	-7214
▁verfolgen	-7215
▁atmosphäre	-7216
▁strukturen	-7217
▁mathematics	-7218
▁durchgeführt	-7219
▁wesentlichen	-7220
far	-7221
zust	-7222
▁mac	-7223
isser	-7224
▁gilt	-7225
▁grös	-7226
design	-7227
ighten	-7228
zeiten	-7229
▁affen	-7230
▁babys	-7231
▁jungs	-7232
▁simpl	-7233
▁wheel	-7234
▁talent	-7235
▁gestern	-7236
▁husband	-7237
▁bildungs	-7238
▁eindruck	-7239
▁rational	-7240
▁entwerfen	-7241
▁problemen	-7242
▁universal	-7243
▁hi	-7244
bing	-7245
eden	-7246
onym	-7247
oret	-7248
▁cla	-7249
▁hur	-7250
hafte	-7251
iften	-7252
ildet	-7253
▁edge	-7254
▁trib	-7255
▁furch	-7256
▁invis	-7257
▁sogen	-7258
▁lesson	-7259
▁mitten	-7260
▁kilomet	-7261
▁körpers	-7262
▁newspap	-7263
▁benefits	-7264
▁besseren	-7265
▁bezahlen	-7266
▁elements	-7267
▁meistens	-7268
▁behandelt	-7269
▁schließen	-7270
▁zufrieden	-7271
▁wunderbare	-7272
▁agriculture	-7273
▁bedingungen	-7274
▁amerikanische	-7275
▁mu	-7276
ania	-7277
icke	-7278
pted	-7279
reci	-7280
▁20.	-7281
▁adam	-7282
▁affe	-7283
▁tedx	-7284
mutter	-7285
▁bound	-7286
▁heads	-7287
▁helps	-7288
▁pengu	-7289
▁vogel	-7290
▁vorbe	-7291
isierte	-7292
▁fairly	-7293
▁lieber	-7294
▁schuld	-7295
▁wisdom	-7296
▁designs	-7297
▁insight	-7298
▁quadrat	-7299
▁related	-7300
▁experten	-7301
▁kaliforn	-7302
▁strength	-7303
▁weiteren	-7304
▁zufällig	-7305
▁interface	-7306
▁unbedingt	-7307
▁background	-7308
▁vermutlich	-7309
▁lebensmittel	-7310
▁professional	-7311
det	-7312
gle	-7313
aped	-7314
fern	-7315
holt	-7316
raid	-7317
anzie	-7318
folge	-7319
halte	-7320
macht	-7321
▁asia	-7322
▁horr	-7323
▁host	-7324
▁null	-7325
▁antib	-7326
▁rhyth	-7327
▁sitzt	-7328
▁traur	-7329
▁erhält	-7330
▁kombin	-7331
▁privat	-7332
entlicht	-7333
▁counter	-7334
▁umgehen	-7335
▁unglück	-7336
▁besitzen	-7337
▁scheinen	-7338
▁verbreitet	-7339
▁übertragen	-7340
▁hauptsächlich	-7341
ua	-7342
fun	-7343
vas	-7344
▁gä	-7345
lder	-7346
uing	-7347
asche	-7348
auern	-7349
griff	-7350
icate	-7351
ulous	-7352
▁erwe	-7353
▁purs	-7354
▁szen	-7355
▁quote	-7356
▁rapid	-7357
▁tough	-7358
▁verte	-7359
▁afraid	-7360
▁engage	-7361
▁slowly	-7362
▁speech	-7363
▁wandel	-7364
▁benefit	-7365
▁drittel	-7366
▁identif	-7367
▁matters	-7368
▁accident	-7369
▁previous	-7370
▁engineers	-7371
▁lieblings	-7372
▁organisms	-7373
▁suffering	-7374
▁unterstützung	-7375
▁organisationen	-7376
oh	-7377
ris	-7378
odes	-7379
▁bem	-7380
▁gay	-7381
zelle	-7382
▁grab	-7383
▁hill	-7384
▁mund	-7385
jekten	-7386
▁hohen	-7387
▁phant	-7388
▁adults	-7389
▁shares	-7390
▁geschle	-7391
▁verkehr	-7392
▁billions	-7393
▁creatures	-7394
▁gestalten	-7395
▁milliarde	-7396
▁beschreiben	-7397
▁fascinating	-7398
▁vergleichen	-7399
bas	-7400
ued	-7401
bewe	-7402
cked	-7403
cles	-7404
klus	-7405
stab	-7406
▁usw	-7407
▁core	-7408
▁stor	-7409
gruppe	-7410
▁accur	-7411
▁carol	-7412
▁chann	-7413
▁fried	-7414
▁mouse	-7415
atively	-7416
▁erweit	-7417
▁portra	-7418
▁steckt	-7419
▁ausgest	-7420
▁concent	-7421
▁kompliz	-7422
▁nochmal	-7423
▁traffic	-7424
▁verkauf	-7425
▁verrück	-7426
▁entsteht	-7427
▁wettbewer	-7428
▁transition	-7429
▁irgendetwas	-7430
▁veröffentlicht	-7431
yer	-7432
ifik	-7433
itel	-7434
osse	-7435
▁fel	-7436
fälle	-7437
laden	-7438
▁ethn	-7439
▁pian	-7440
▁trip	-7441
▁vors	-7442
kehren	-7443
▁einst	-7444
▁laufe	-7445
bereich	-7446
llywood	-7447
meister	-7448
steller	-7449
▁begins	-7450
▁fields	-7451
▁rahmen	-7452
▁uganda	-7453
▁zucker	-7454
▁justice	-7455
▁fighting	-7456
▁leistung	-7457
▁platform	-7458
▁schwarze	-7459
▁weiteres	-7460
▁überzeugt	-7461
▁competition	-7462
▁q	-7463
fil	-7464
elly	-7465
tten	-7466
zten	-7467
▁unw	-7468
ipped	-7469
▁1980	-7470
▁2009	-7471
▁bloß	-7472
▁boat	-7473
▁meat	-7474
▁pock	-7475
inhalb	-7476
▁humor	-7477
▁stone	-7478
▁walls	-7479
▁advant	-7480
▁easier	-7481
▁haufen	-7482
▁mexico	-7483
▁sector	-7484
▁themen	-7485
▁wächst	-7486
richtung	-7487
▁kümmern	-7488
▁neugier	-7489
▁verwend	-7490
▁identity	-7491
richtungen	-7492
▁gegenseit	-7493
▁hopefully	-7494
▁influence	-7495
▁statistics	-7496
▁experiences	-7497
▁kohlenstoff	-7498
▁civilization	-7499
ns	-7500
zul	-7501
aven	-7502
icon	-7503
pass	-7504
same	-7505
▁bag	-7506
▁fis	-7507
idden	-7508
örper	-7509
▁bird	-7510
▁chap	-7511
▁hohe	-7512
▁lady	-7513
estens	-7514
▁elekt	-7515
▁embra	-7516
▁flüss	-7517
▁hängt	-7518
▁offer	-7519
▁setzt	-7520
▁stift	-7521
▁erster	-7522
▁events	-7523
▁galaxy	-7524
▁geomet	-7525
▁meters	-7526
▁appreci	-7527
▁chirurg	-7528
▁leading	-7529
▁leaving	-7530
▁schnitt	-7531
▁typical	-7532
▁freiwill	-7533
▁necessary	-7534
▁augenblick	-7535
arr	-7536
zed	-7537
gabe	-7538
uert	-7539
▁bie	-7540
▁jon	-7541
▁rou	-7542
bling	-7543
gener	-7544
werte	-7545
▁bron	-7546
▁dick	-7547
▁soph	-7548
nissen	-7549
rucken	-7550
▁kurze	-7551
▁mittl	-7552
▁starb	-7553
▁texas	-7554
▁woher	-7555
itionen	-7556
problem	-7557
▁caught	-7558
▁gewebe	-7559
▁grandm	-7560
ifically	-7561
▁authent	-7562
▁gesetze	-7563
▁kontext	-7564
▁seltsam	-7565
istischen	-7566
▁betrifft	-7567
▁dokument	-7568
▁erwartet	-7569
▁nützlich	-7570
▁separate	-7571
▁teilchen	-7572
▁aktivität	-7573
▁verbracht	-7574
▁gefährlich	-7575
▁verhindern	-7576
ov	-7577
ruf	-7578
inde	-7579
otic	-7580
udes	-7581
▁jew	-7582
▁lob	-7583
▁mam	-7584
▁prü	-7585
▁prem	-7586
▁seat	-7587
▁trop	-7588
ciples	-7589
idents	-7590
tended	-7591
▁franz	-7592
▁ghana	-7593
▁kohle	-7594
▁moves	-7595
▁colors	-7596
▁gewinn	-7597
▁remote	-7598
▁anderem	-7599
▁morgens	-7600
▁regular	-7601
▁städten	-7602
ibilities	-7603
▁beschleun	-7604
▁economics	-7605
▁responsible	-7606
ßt	-7607
enk	-7608
vit	-7609
ffer	-7610
iern	-7611
stag	-7612
▁cow	-7613
▁tue	-7614
▁wit	-7615
andem	-7616
inkel	-7617
plane	-7618
▁arms	-7619
▁bits	-7620
▁date	-7621
▁diam	-7622
▁neut	-7623
▁ring	-7624
laufen	-7625
▁geste	-7626
▁sowie	-7627
▁weird	-7628
▁dreams	-7629
▁fabrik	-7630
▁geräte	-7631
▁spider	-7632
▁testen	-7633
▁überle	-7634
▁bildern	-7635
▁falsche	-7636
▁gewicht	-7637
▁shouldn	-7638
▁schreibt	-7639
▁einsetzen	-7640
▁otherwise	-7641
▁schwester	-7642
▁verlangen	-7643
wissenschaft	-7644
▁importantly	-7645
irt	-7646
aler	-7647
rale	-7648
unte	-7649
▁bay	-7650
frist	-7651
ungsf	-7652
▁2004	-7653
▁arts	-7654
▁brut	-7655
▁ecke	-7656
▁getö	-7657
▁lauf	-7658
▁seed	-7659
▁beine	-7660
▁derek	-7661
▁handy	-7662
▁regul	-7663
▁dürfen	-7664
▁raised	-7665
▁sister	-7666
programm	-7667
▁gedanke	-7668
▁gerecht	-7669
▁insects	-7670
▁normale	-7671
▁organic	-7672
▁describe	-7673
▁relevant	-7674
▁begeistert	-7675
▁hergestellt	-7676
lu	-7677
osc	-7678
▁32	-7679
mmer	-7680
▁195	-7681
auber	-7682
iment	-7683
▁fell	-7684
▁hate	-7685
▁nest	-7686
▁peak	-7687
▁repe	-7688
▁wood	-7689
▁zell	-7690
▁angew	-7691
▁names	-7692
▁plane	-7693
▁radik	-7694
▁wahre	-7695
▁mütter	-7696
▁option	-7697
▁tricks	-7698
▁yester	-7699
gebracht	-7700
▁erzähle	-7701
▁holding	-7702
▁studied	-7703
▁engineer	-7704
▁finished	-7705
▁normally	-7706
▁according	-7707
▁identität	-7708
▁invisible	-7709
▁vorhanden	-7710
▁forschungs	-7711
▁motivation	-7712
▁principles	-7713
amb	-7714
mat	-7715
war	-7716
kont	-7717
mord	-7718
spra	-7719
▁tät	-7720
enken	-7721
icted	-7722
▁ford	-7723
▁gefä	-7724
atures	-7725
▁crime	-7726
▁honor	-7727
▁verbl	-7728
▁weder	-7729
▁damage	-7730
▁degree	-7731
▁echten	-7732
▁virgin	-7733
▁artific	-7734
▁contact	-7735
▁schönen	-7736
▁tedtalk	-7737
▁verlust	-7738
▁airplane	-7739
▁everyday	-7740
▁finanzie	-7741
▁molecule	-7742
▁stanford	-7743
▁angesehen	-7744
▁bestimmen	-7745
▁seriously	-7746
▁independent	-7747
▁bf	-7748
ckte	-7749
ican	-7750
osis	-7751
▁bob	-7752
▁ehe	-7753
itete	-7754
kreis	-7755
▁appe	-7756
▁bell	-7757
▁kick	-7758
▁magn	-7759
▁vere	-7760
▁besor	-7761
▁contr	-7762
▁dolph	-7763
▁obser	-7764
artment	-7765
gesehen	-7766
▁amazon	-7767
▁circle	-7768
▁dinner	-7769
▁gefahr	-7770
▁heimat	-7771
▁poster	-7772
▁ungewö	-7773
▁autonom	-7774
▁capable	-7775
▁einiger	-7776
▁geschen	-7777
▁modelle	-7778
▁require	-7779
▁theoret	-7780
ungskraft	-7781
▁entirely	-7782
▁konflikt	-7783
▁opposite	-7784
▁languages	-7785
▁eingesetzt	-7786
da	-7787
cil	-7788
agne	-7789
izen	-7790
oses	-7791
prob	-7792
trag	-7793
wärt	-7794
▁ens	-7795
cking	-7796
iffen	-7797
▁boot	-7798
▁exch	-7799
▁kreu	-7800
▁manh	-7801
▁pfer	-7802
▁roof	-7803
▁satz	-7804
▁ship	-7805
▁vacc	-7806
▁defen	-7807
▁heran	-7808
▁infin	-7809
▁polar	-7810
▁proud	-7811
ruction	-7812
▁gehabt	-7813
▁lachen	-7814
▁motion	-7815
▁nannte	-7816
▁parall	-7817
▁spring	-7818
▁ameisen	-7819
▁deutsch	-7820
▁gewisse	-7821
▁illustr	-7822
▁creation	-7823
▁gewisser	-7824
▁mögliche	-7825
▁sequence	-7826
▁zunehmen	-7827
▁praktisch	-7828
▁yesterday	-7829
▁bildschirm	-7830
▁transplant	-7831
▁wesentlich	-7832
▁öffentlichkeit	-7833
erc	-7834
ety	-7835
lem	-7836
äst	-7837
▁ut	-7838
ardo	-7839
enty	-7840
▁gap	-7841
▁pfe	-7842
▁sto	-7843
▁unl	-7844
frage	-7845
ordin	-7846
führer	-7847
▁argue	-7848
▁betre	-7849
▁egypt	-7850
▁holen	-7851
▁lunch	-7852
▁round	-7853
▁stuck	-7854
▁teuer	-7855
▁union	-7856
▁deeply	-7857
▁desire	-7858
▁glaubt	-7859
▁häuser	-7860
▁organs	-7861
▁strang	-7862
▁alleine	-7863
▁article	-7864
▁attempt	-7865
▁fragten	-7866
▁reprodu	-7867
▁spiegel	-7868
▁welchen	-7869
▁diabetes	-7870
▁diagnost	-7871
▁kindheit	-7872
▁kürzlich	-7873
▁multiple	-7874
▁soldaten	-7875
▁zurückzu	-7876
▁concerned	-7877
▁principle	-7878
▁schwimmen	-7879
▁journalist	-7880
▁verwandeln	-7881
▁interagieren	-7882
▁interessieren	-7883
kor	-7884
▁28	-7885
cers	-7886
läss	-7887
rech	-7888
▁ast	-7889
▁dee	-7890
▁hir	-7891
▁tes	-7892
gment	-7893
▁bear	-7894
▁coal	-7895
▁kart	-7896
▁opin	-7897
▁reag	-7898
▁wear	-7899
ession	-7900
▁grade	-7901
▁novel	-7902
▁nutzt	-7903
▁pyram	-7904
▁viren	-7905
mission	-7906
ständen	-7907
▁10.000	-7908
▁berühm	-7909
▁fourth	-7910
▁karten	-7911
▁letter	-7912
▁schock	-7913
▁toward	-7914
▁verzwe	-7915
▁getötet	-7916
▁believed	-7917
▁childhood	-7918
▁gegenteil	-7919
▁versuchten	-7920
▁erwachsenen	-7921
appe	-7922
lied	-7923
reif	-7924
wegs	-7925
▁dou	-7926
▁era	-7927
▁lou	-7928
▁rum	-7929
▁wom	-7930
fisch	-7931
karte	-7932
orrow	-7933
swert	-7934
▁aufs	-7935
▁bett	-7936
▁impf	-7937
▁janu	-7938
▁lied	-7939
▁orch	-7940
fangen	-7941
▁exhib	-7942
▁filme	-7943
▁grown	-7944
▁limit	-7945
▁pages	-7946
▁pingu	-7947
führung	-7948
schrift	-7949
▁failed	-7950
▁helden	-7951
▁incent	-7952
▁martin	-7953
▁oceans	-7954
▁reward	-7955
▁string	-7956
▁absicht	-7957
▁angeles	-7958
▁correct	-7959
▁managed	-7960
▁reichen	-7961
▁warming	-7962
▁zeichen	-7963
▁analysis	-7964
▁distance	-7965
▁followed	-7966
▁schimpan	-7967
▁tomorrow	-7968
▁whenever	-7969
▁dimensions	-7970
▁electrical	-7971
▁überraschen	-7972
▁erstaunliche	-7973
▁increasingly	-7974
2-	-7975
zä	-7976
care	-7977
▁asp	-7978
acher	-7979
▁bone	-7980
▁evil	-7981
▁umge	-7982
atoren	-7983
▁absor	-7984
▁fresh	-7985
▁higgs	-7986
▁tiefe	-7987
▁bieten	-7988
▁händen	-7989
▁kaffee	-7990
▁oxford	-7991
▁sauber	-7992
▁voices	-7993
▁zimmer	-7994
▁genauer	-7995
▁manhatt	-7996
▁polizei	-7997
▁aufhören	-7998
▁illusion	-7999
▁surprise	-8000
▁microsoft	-8001
▁worldwide	-8002
▁inspiriert	-8003
▁verbreiten	-8004
▁kompliziert	-8005
▁perspektive	-8006
▁gesundheitsw	-8007
▁verantwortlich	-8008
fir	-8009
pid	-8010
von	-8011
▁äg	-8012
fish	-8013
test	-8014
well	-8015
halts	-8016
ielen	-8017
illed	-8018
schlä	-8019
▁dreh	-8020
▁nutr	-8021
▁subt	-8022
▁whom	-8023
ifying	-8024
▁2,000	-8025
▁chrom	-8026
▁rechn	-8027
▁stoff	-8028
▁toler	-8029
▁willi	-8030
▁dialog	-8031
▁filter	-8032
▁observ	-8033
▁opened	-8034
▁pounds	-8035
▁tempor	-8036
▁thinks	-8037
▁abgesch	-8038
▁bekamen	-8039
▁empower	-8040
▁failure	-8041
▁spieler	-8042
ologische	-8043
▁diplomat	-8044
▁gehalten	-8045
▁disappear	-8046
▁perfectly	-8047
▁constantly	-8048
▁erkenntnis	-8049
▁consumption	-8050
gro	-8051
unk	-8052
hält	-8053
kins	-8054
kton	-8055
sens	-8056
teln	-8057
▁aqu	-8058
▁ven	-8059
craft	-8060
fügen	-8061
gerät	-8062
▁chip	-8063
bracht	-8064
bridge	-8065
lieben	-8066
werten	-8067
▁adopt	-8068
▁bewir	-8069
▁cycle	-8070
▁nobel	-8071
▁unend	-8072
▁weißt	-8073
bewesen	-8074
gewicht	-8075
▁attach	-8076
▁bright	-8077
▁contra	-8078
▁diskut	-8079
▁harder	-8080
struktur	-8081
▁acceler	-8082
▁factory	-8083
▁gehirne	-8084
▁gelesen	-8085
▁illness	-8086
▁mothers	-8087
▁verteid	-8088
▁wearing	-8089
▁baseball	-8090
▁moleküle	-8091
krankungen	-8092
▁continent	-8093
▁entertain	-8094
▁schlimmer	-8095
▁organismen	-8096
▁überrascht	-8097
▁institutionen	-8098
ays	-8099
ses	-8100
urf	-8101
zil	-8102
▁95	-8103
▁gü	-8104
atom	-8105
mine	-8106
ords	-8107
▁dry	-8108
▁ruh	-8109
asion	-8110
ffekt	-8111
ischt	-8112
▁2001	-8113
▁2003	-8114
▁athe	-8115
▁empt	-8116
▁maus	-8117
▁quas	-8118
▁tail	-8119
▁wars	-8120
▁befre	-8121
▁gates	-8122
▁lernt	-8123
▁opfer	-8124
▁smith	-8125
▁trägt	-8126
▁wisst	-8127
ältigen	-8128
▁kurzen	-8129
▁saturn	-8130
▁starke	-8131
▁unless	-8132
ationale	-8133
schlagen	-8134
▁chromos	-8135
▁compare	-8136
▁highest	-8137
▁prototy	-8138
blichkeit	-8139
▁investig	-8140
▁normalen	-8141
▁resource	-8142
▁survival	-8143
▁classroom	-8144
▁existieren	-8145
▁entwickelte	-8146
▁verschwinden	-8147
▁glo	-8148
geber	-8149
known	-8150
schre	-8151
▁drag	-8152
▁dran	-8153
▁gand	-8154
▁liqu	-8155
▁witz	-8156
etzten	-8157
werden	-8158
▁folge	-8159
▁input	-8160
▁lebte	-8161
▁musst	-8162
▁quiet	-8163
▁cortex	-8164
▁dauert	-8165
▁sparen	-8166
▁weißen	-8167
▁100,000	-8168
▁chicken	-8169
▁employe	-8170
▁library	-8171
▁steuern	-8172
▁volunte	-8173
▁vorteil	-8174
▁weapons	-8175
▁weather	-8176
▁ordinary	-8177
▁advantage	-8178
▁currently	-8179
▁gestorben	-8180
▁manhattan	-8181
▁operating	-8182
▁leadership	-8183
▁wahrnehmung	-8184
▁öffentliche	-8185
kul	-8186
▁zü	-8187
▁rab	-8188
▁rie	-8189
agers	-8190
riage	-8191
unkte	-8192
▁1950	-8193
▁army	-8194
▁diss	-8195
▁mamm	-8196
▁subs	-8197
heimer	-8198
ischem	-8199
stands	-8200
▁erled	-8201
▁fiber	-8202
▁rural	-8203
▁ziele	-8204
▁deinen	-8205
▁hidden	-8206
▁leaves	-8207
▁basiert	-8208
▁experts	-8209
▁signals	-8210
▁aufbauen	-8211
▁document	-8212
▁erkannte	-8213
▁galaxies	-8214
▁verbindet	-8215
▁wenigsten	-8216
▁angenommen	-8217
▁equivalent	-8218
▁landschaft	-8219
▁mindestens	-8220
▁persönlich	-8221
▁reduzieren	-8222
▁dinosaurier	-8223
▁wirtschafts	-8224
pan	-8225
stu	-8226
zig	-8227
anta	-8228
▁hen	-8229
▁ray	-8230
▁tox	-8231
bares	-8232
erson	-8233
uries	-8234
▁boom	-8235
▁diet	-8236
▁soil	-8237
penden	-8238
▁dozen	-8239
▁minim	-8240
▁steel	-8241
▁steps	-8242
▁zweif	-8243
▁ausgeb	-8244
▁battle	-8245
▁belief	-8246
▁brazil	-8247
▁breath	-8248
▁explan	-8249
▁garten	-8250
▁kräfte	-8251
▁meiste	-8252
▁schien	-8253
▁bemerkt	-8254
▁drawing	-8255
▁elektro	-8256
▁schaden	-8257
▁seitdem	-8258
▁succeed	-8259
▁trained	-8260
▁vehicle	-8261
▁worried	-8262
▁überprü	-8263
▁majority	-8264
▁teenager	-8265
▁aufregend	-8266
▁brauchten	-8267
▁cognitive	-8268
▁arbeiteten	-8269
▁erscheinen	-8270
▁individuen	-8271
▁zugänglich	-8272
▁grundlegende	-8273
▁unterscheiden	-8274
cel	-8275
ket	-8276
pet	-8277
rag	-8278
best	-8279
iors	-8280
olit	-8281
telt	-8282
▁120	-8283
▁esc	-8284
▁lux	-8285
▁pin	-8286
otten	-8287
▁agre	-8288
▁init	-8289
▁load	-8290
▁scan	-8291
minist	-8292
stream	-8293
▁erleb	-8294
▁kenya	-8295
▁simul	-8296
setzung	-8297
zentrum	-8298
▁caused	-8299
▁closed	-8300
▁debate	-8301
▁exists	-8302
▁geschm	-8303
▁grenze	-8304
▁implic	-8305
▁shapes	-8306
▁stream	-8307
▁vagina	-8308
▁verblü	-8309
▁moderne	-8310
▁suppose	-8311
▁windows	-8312
▁überein	-8313
▁behalten	-8314
▁brachten	-8315
▁compared	-8316
▁parallel	-8317
stellungen	-8318
▁gegensatz	-8319
▁konsequen	-8320
▁artificial	-8321
▁corruption	-8322
▁schlechten	-8323
▁generations	-8324
rus	-8325
aurs	-8326
bell	-8327
mess	-8328
vere	-8329
▁gee	-8330
hrung	-8331
▁bees	-8332
▁grid	-8333
▁hasn	-8334
▁mall	-8335
▁viet	-8336
icated	-8337
▁eleph	-8338
▁faith	-8339
▁horse	-8340
▁shoes	-8341
▁canada	-8342
▁heisst	-8343
▁bezahlt	-8344
▁limited	-8345
▁starten	-8346
▁videosp	-8347
▁erfinden	-8348
▁galaxien	-8349
▁designing	-8350
▁verfügbar	-8351
▁businesses	-8352
▁convention	-8353
▁fantastisch	-8354
▁persönliche	-8355
▁neighborhood	-8356
▁entrepreneurs	-8357
jo	-8358
ari	-8359
lös	-8360
mas	-8361
mor	-8362
gene	-8363
gren	-8364
hnten	-8365
▁anre	-8366
▁ants	-8367
▁gäbe	-8368
▁equal	-8369
▁heavy	-8370
▁layer	-8371
▁recon	-8372
▁schla	-8373
projekt	-8374
▁circum	-8375
▁ließen	-8376
▁muscle	-8377
▁schiff	-8378
▁schlau	-8379
▁beinhal	-8380
▁fördern	-8381
▁invited	-8382
▁kriegen	-8383
▁effektiv	-8384
▁planning	-8385
▁schlagen	-8386
ologischen	-8387
▁effizient	-8388
▁lebewesen	-8389
▁netzwerke	-8390
▁politiker	-8391
▁kalifornien	-8392
▁generationen	-8393
lv	-8394
cast	-8395
gers	-8396
life	-8397
part	-8398
star	-8399
▁alz	-8400
▁zog	-8401
power	-8402
▁puts	-8403
▁spin	-8404
▁wave	-8405
▁wurz	-8406
aschen	-8407
igsten	-8408
▁avoid	-8409
▁exerc	-8410
▁hilfs	-8411
▁holes	-8412
▁negot	-8413
▁prime	-8414
▁quasi	-8415
▁shall	-8416
▁smile	-8417
▁sucht	-8418
▁wobei	-8419
▁bruder	-8420
▁chemik	-8421
▁europä	-8422
▁fische	-8423
▁paying	-8424
▁tenden	-8425
▁brauche	-8426
▁cartoon	-8427
▁viruses	-8428
▁annehmen	-8429
▁entgegen	-8430
▁japanese	-8431
▁strategy	-8432
▁vertraut	-8433
▁betroffen	-8434
▁described	-8435
▁emotionen	-8436
▁essential	-8437
▁mentioned	-8438
▁collective	-8439
▁entspricht	-8440
▁elektrizität	-8441
fig	-8442
set	-8443
flug	-8444
netz	-8445
pern	-8446
wing	-8447
ößen	-8448
▁joe	-8449
▁ost	-8450
asten	-8451
ologe	-8452
passt	-8453
▁bras	-8454
▁clip	-8455
▁flat	-8456
▁jähr	-8457
▁lass	-8458
▁valu	-8459
▁weis	-8460
▁bekom	-8461
▁chart	-8462
▁click	-8463
▁embar	-8464
▁zweck	-8465
flächen	-8466
▁auftau	-8467
▁drüben	-8468
▁filled	-8469
▁pandem	-8470
▁parent	-8471
▁phosph	-8472
▁player	-8473
▁stimul	-8474
▁britain	-8475
▁dynamic	-8476
▁radical	-8477
▁setting	-8478
▁spezial	-8479
▁wenigen	-8480
▁abhängig	-8481
▁anwenden	-8482
▁brothers	-8483
▁feelings	-8484
▁cambridge	-8485
▁dinosaurs	-8486
▁entworfen	-8487
▁erklärung	-8488
▁innovative	-8489
▁auseinander	-8490
▁grundsätzlich	-8491
box	-8492
ita	-8493
▁kb	-8494
acle	-8495
cipl	-8496
resp	-8497
änen	-8498
ühen	-8499
▁bos	-8500
▁dop	-8501
▁pow	-8502
itzer	-8503
ängst	-8504
▁cosm	-8505
▁earn	-8506
▁getr	-8507
▁pair	-8508
▁pill	-8509
inning	-8510
▁antar	-8511
▁ausdr	-8512
▁crowd	-8513
▁milch	-8514
▁navig	-8515
▁parte	-8516
▁schiz	-8517
▁unbek	-8518
▁advert	-8519
▁hoffen	-8520
▁howard	-8521
▁liquid	-8522
▁schick	-8523
▁schlaf	-8524
▁trends	-8525
bewegung	-8526
ographie	-8527
▁curious	-8528
▁diagram	-8529
▁letters	-8530
▁regener	-8531
▁schaute	-8532
▁täglich	-8533
▁verhand	-8534
▁disaster	-8535
▁emerging	-8536
▁horizont	-8537
▁komplexe	-8538
▁alzheimer	-8539
▁besondere	-8540
▁interaction	-8541
nü	-8542
amt	-8543
gas	-8544
ura	-8545
▁hu	-8546
mitt	-8547
▁geg	-8548
lands	-8549
place	-8550
raten	-8551
▁bull	-8552
▁lies	-8553
comput	-8554
ipment	-8555
versor	-8556
▁insul	-8557
▁solch	-8558
▁stufe	-8559
▁weile	-8560
amerika	-8561
gegeben	-8562
idimens	-8563
ordnung	-8564
systeme	-8565
▁aufgew	-8566
▁formul	-8567
▁phones	-8568
▁wander	-8569
▁ansicht	-8570
▁command	-8571
▁führung	-8572
▁geistes	-8573
▁keeping	-8574
▁treated	-8575
▁elemente	-8576
▁european	-8577
▁gefahren	-8578
▁korallen	-8579
▁launched	-8580
▁northern	-8581
▁prototyp	-8582
▁überzeug	-8583
▁geheimnis	-8584
▁intellekt	-8585
▁mountains	-8586
▁zeitalter	-8587
▁distribution	-8588
▁persönlichen	-8589
▁unterschiedlich	-8590
för	-8591
hai	-8592
see	-8593
äne	-8594
dest	-8595
hört	-8596
izer	-8597
ocol	-8598
wich	-8599
▁roy	-8600
emble	-8601
erten	-8602
ibung	-8603
ifest	-8604
ville	-8605
▁drin	-8606
▁jüng	-8607
▁snow	-8608
zungen	-8609
▁coral	-8610
▁fähig	-8611
▁fängt	-8612
▁homes	-8613
▁lifet	-8614
▁perce	-8615
▁sites	-8616
▁sugar	-8617
▁wuchs	-8618
▁fantas	-8619
▁finish	-8620
▁grafik	-8621
▁losing	-8622
▁neuron	-8623
▁soviel	-8624
▁spektr	-8625
▁staats	-8626
▁stupid	-8627
isierten	-8628
▁angesch	-8629
▁gehören	-8630
▁killing	-8631
▁opening	-8632
▁nationen	-8633
▁aufgebaut	-8634
▁entschuld	-8635
▁equipment	-8636
▁erscheint	-8637
▁mittleren	-8638
▁standards	-8639
▁technical	-8640
▁zerstören	-8641
▁entdeckung	-8642
▁entstanden	-8643
▁informations	-8644
üst	-8645
▁ew	-8646
akte	-8647
esch	-8648
ützt	-8649
▁due	-8650
besch	-8651
mäßig	-8652
wagen	-8653
▁blow	-8654
▁enem	-8655
▁penn	-8656
▁pink	-8657
▁suit	-8658
iminal	-8659
liothe	-8660
muster	-8661
utzung	-8662
▁aging	-8663
▁begle	-8664
▁cloth	-8665
▁daily	-8666
▁feind	-8667
▁femin	-8668
▁halbe	-8669
▁solid	-8670
▁wagen	-8671
anthrop	-8672
ography	-8673
▁belong	-8674
▁contem	-8675
▁establ	-8676
▁movies	-8677
▁perman	-8678
▁propos	-8679
▁rechen	-8680
▁review	-8681
▁trials	-8682
▁appropr	-8683
▁automob	-8684
▁beweise	-8685
▁inneren	-8686
▁origami	-8687
▁silicon	-8688
verbrauch	-8689
▁beschrän	-8690
▁congress	-8691
▁ersetzen	-8692
▁forscher	-8693
▁gespielt	-8694
▁pleasure	-8695
▁vorfahren	-8696
▁associated	-8697
▁democratic	-8698
▁department	-8699
▁protection	-8700
▁verbrachte	-8701
▁grandmother	-8702
möglichkeiten	-8703
▁consequences	-8704
▁intellectual	-8705
▁traditionellen	-8706
bot	-8707
nel	-8708
sey	-8709
geln	-8710
iffe	-8711
umin	-8712
▁irr	-8713
▁mak	-8714
▁roh	-8715
iency	-8716
sters	-8717
theit	-8718
▁fuhr	-8719
▁poem	-8720
▁user	-8721
▁vess	-8722
estern	-8723
orient	-8724
▁awful	-8725
▁chain	-8726
▁imper	-8727
▁krise	-8728
▁teeth	-8729
▁toten	-8730
▁zieht	-8731
steigen	-8732
▁announ	-8733
▁furcht	-8734
▁mangel	-8735
▁mexiko	-8736
▁setzte	-8737
▁streit	-8738
amerikan	-8739
▁covered	-8740
▁pacific	-8741
▁roughly	-8742
▁spannen	-8743
zubringen	-8744
▁advanced	-8745
▁lebenser	-8746
▁ungleich	-8747
▁weltraum	-8748
▁zerstört	-8749
▁chemicals	-8750
▁digitalen	-8751
▁hollywood	-8752
▁producing	-8753
▁surprised	-8754
▁korruption	-8755
▁produktion	-8756
▁untersucht	-8757
▁architekten	-8758
▁medizinische	-8759
har	-8760
jem	-8761
▁ii	-8762
▁vi	-8763
aled	-8764
iban	-8765
ifer	-8766
roph	-8767
▁brü	-8768
▁jim	-8769
rehen	-8770
▁bare	-8771
▁homo	-8772
▁irre	-8773
schaut	-8774
▁flies	-8775
▁laser	-8776
▁skept	-8777
▁sweet	-8778
auspiel	-8779
▁beweis	-8780
▁conver	-8781
▁erlebt	-8782
▁kooper	-8783
▁marine	-8784
▁wellen	-8785
▁anthrop	-8786
▁florida	-8787
▁consumer	-8788
▁kulturen	-8789
▁methoden	-8790
▁nachbarn	-8791
▁proteins	-8792
▁spectrum	-8793
▁zeichnen	-8794
▁chemistry	-8795
▁practical	-8796
unternehmen	-8797
▁medikament	-8798
▁beantworten	-8799
▁feststellen	-8800
▁veröffentlich	-8801
ba	-8802
hö	-8803
hab	-8804
aked	-8805
ault	-8806
bers	-8807
igem	-8808
▁191	-8809
▁pad	-8810
▁süß	-8811
iogen	-8812
▁beet	-8813
▁poly	-8814
▁shop	-8815
▁tony	-8816
▁vort	-8817
▁zone	-8818
gesell	-8819
ipping	-8820
ophren	-8821
▁exped	-8822
▁gehör	-8823
▁laugh	-8824
▁stimm	-8825
▁aspekt	-8826
▁ausmaß	-8827
▁enable	-8828
▁hinten	-8829
▁leader	-8830
▁preser	-8831
▁auswahl	-8832
▁kitchen	-8833
▁lessons	-8834
▁monitor	-8835
▁proport	-8836
▁vergröß	-8837
▁besessen	-8838
▁hinsicht	-8839
▁jahrzehnt	-8840
▁studieren	-8841
▁wichtigen	-8842
▁unabhängig	-8843
▁vermitteln	-8844
▁beschlossen	-8845
▁schizophren	-8846
▁beschäftigen	-8847
ode	-8848
uum	-8849
▁ku	-8850
▁ky	-8851
arre	-8852
bage	-8853
foot	-8854
fahrt	-8855
fluss	-8856
icing	-8857
itals	-8858
nimmt	-8859
stimm	-8860
▁atem	-8861
▁hadn	-8862
▁jose	-8863
▁pros	-8864
▁pure	-8865
▁reef	-8866
▁spät	-8867
ktions	-8868
phones	-8869
ushing	-8870
▁bekäm	-8871
▁ermut	-8872
▁passt	-8873
▁synch	-8874
▁users	-8875
▁übrig	-8876
▁anhand	-8877
▁ausser	-8878
▁besche	-8879
▁beschl	-8880
▁bietet	-8881
▁chemie	-8882
▁geräus	-8883
▁lehren	-8884
▁müsste	-8885
▁quelle	-8886
indungen	-8887
▁contain	-8888
▁dealing	-8889
▁galaxie	-8890
▁mittler	-8891
▁paradox	-8892
▁stärker	-8893
▁administ	-8894
▁cultures	-8895
▁property	-8896
▁systemat	-8897
▁thoughts	-8898
▁verzweif	-8899
▁dimension	-8900
▁emissions	-8901
▁intuition	-8902
▁irgendjem	-8903
▁molecular	-8904
▁mortality	-8905
▁beobachtet	-8906
▁darstellen	-8907
▁importance	-8908
ola	-8909
down	-8910
eben	-8911
oles	-8912
▁bip	-8913
▁dot	-8914
▁flag	-8915
▁fürs	-8916
▁kerl	-8917
▁rote	-8918
▁silk	-8919
▁säug	-8920
▁ägyp	-8921
fragen	-8922
gewalt	-8923
roskop	-8924
äusern	-8925
▁maint	-8926
▁spont	-8927
▁stood	-8928
erneath	-8929
▁vieler	-8930
▁zählen	-8931
▁aggress	-8932
▁welchem	-8933
▁werbung	-8934
▁whereas	-8935
▁witness	-8936
isationen	-8937
▁besuchen	-8938
▁kreieren	-8939
▁reaction	-8940
▁soldiers	-8941
▁australia	-8942
▁gemeinden	-8943
▁notwendig	-8944
▁aufzubauen	-8945
▁bewegungen	-8946
▁jedenfalls	-8947
▁kilometers	-8948
▁underneath	-8949
▁effectively	-8950
▁natürlichen	-8951
▁researchers	-8952
▁schimpansen	-8953
▁possibilities	-8954
▁selbstverständ	-8955
eg	-8956
uc	-8957
icy	-8958
anen	-8959
▁800	-8960
▁ath	-8961
▁fan	-8962
▁tap	-8963
▁ums	-8964
▁cous	-8965
▁gore	-8966
▁tall	-8967
▁vibr	-8968
spruch	-8969
▁agend	-8970
▁empty	-8971
▁korea	-8972
▁ledig	-8973
▁orbit	-8974
▁platt	-8975
gruppen	-8976
systems	-8977
▁blocks	-8978
▁encoun	-8979
▁fehlen	-8980
▁kochen	-8981
▁lebten	-8982
▁script	-8983
▁stammt	-8984
▁steigt	-8985
▁steven	-8986
▁treten	-8987
▁träume	-8988
▁wolken	-8989
▁arrived	-8990
▁battery	-8991
▁gebeten	-8992
▁married	-8993
▁molekül	-8994
▁nervous	-8995
▁bevölker	-8996
▁gespräch	-8997
▁geändert	-8998
▁konfront	-8999
▁manifest	-9000
▁abschluss	-9001
▁entdeckte	-9002
▁ernsthaft	-9003
▁beeindruck	-9004
▁definieren	-9005
▁expression	-9006
▁construction	-9007
▁specifically	-9008
mod	-9009
mern	-9010
▁piz	-9011
▁sms	-9012
▁zäh	-9013
ician	-9014
inahe	-9015
inson	-9016
▁ends	-9017
▁eric	-9018
▁fiel	-9019
▁kosm	-9020
▁surf	-9021
▁unex	-9022
▁zahn	-9023
fallen	-9024
rechte	-9025
▁folks	-9026
▁gehol	-9027
▁lager	-9028
▁miner	-9029
▁nötig	-9030
▁rates	-9031
▁saved	-9032
▁seele	-9033
stoffen	-9034
▁anteil	-9035
▁doktor	-9036
▁dunkle	-9037
▁durchs	-9038
▁explod	-9039
▁factor	-9040
▁junger	-9041
▁konkur	-9042
▁lustig	-9043
▁pflege	-9044
▁sharks	-9045
▁wetter	-9046
▁beinahe	-9047
▁berührt	-9048
▁einheit	-9049
▁erwähnt	-9050
▁gravity	-9051
▁hindern	-9052
▁lektion	-9053
▁verdopp	-9054
▁affected	-9055
▁antibiot	-9056
▁beweisen	-9057
▁lediglich	-9058
▁organized	-9059
▁interaktion	-9060
▁mathematical	-9061
▁zivilisation	-9062
zep	-9063
üse	-9064
kopf	-9065
mail	-9066
zing	-9067
äger	-9068
▁bug	-9069
▁hob	-9070
ender	-9071
▁beer	-9072
▁bund	-9073
▁fein	-9074
▁kenn	-9075
▁mama	-9076
▁maps	-9077
▁rene	-9078
▁vote	-9079
▁wahn	-9080
▁categ	-9081
▁colon	-9082
▁fewer	-9083
▁henry	-9084
▁repar	-9085
▁verab	-9086
▁vorne	-9087
▁vögel	-9088
ächtnis	-9089
▁anonym	-9090
▁compar	-9091
▁picked	-9092
▁fernseh	-9093
▁französ	-9094
▁phantom	-9095
▁variety	-9096
▁wieviel	-9097
▁wissens	-9098
▁bereiche	-9099
▁clinical	-9100
▁erstellt	-9101
▁suggests	-9102
▁valuable	-9103
▁ernährung	-9104
▁schwarzen	-9105
▁sophistic	-9106
issenschaft	-9107
▁considered	-9108
▁verbessert	-9109
▁verhältnis	-9110
öd	-9111
era	-9112
▁85	-9113
adel	-9114
anze	-9115
esie	-9116
herr	-9117
onic	-9118
▁urs	-9119
daten	-9120
ließt	-9121
▁acqu	-9122
▁shel	-9123
acters	-9124
besond	-9125
iences	-9126
karten	-9127
mented	-9128
otechn	-9129
rieren	-9130
▁cents	-9131
▁goals	-9132
▁occup	-9133
▁pregn	-9134
▁prove	-9135
▁scene	-9136
▁spoke	-9137
areness	-9138
gedacht	-9139
gründet	-9140
spielen	-9141
▁diesel	-9142
▁innere	-9143
▁linien	-9144
▁orient	-9145
▁sonder	-9146
▁ungehe	-9147
änderung	-9148
▁calling	-9149
▁illegal	-9150
▁neurosc	-9151
▁taliban	-9152
▁wirkung	-9153
▁folgende	-9154
▁relative	-9155
▁verteilt	-9156
▁newspaper	-9157
▁wirkliche	-9158
▁characters	-9159
▁relatively	-9160
▁techniques	-9161
▁westlichen	-9162
▁schrecklich	-9163
▁evolutionary	-9164
▁unterrichten	-9165
▁unglaublichen	-9166
▁beispielsweise	-9167
bru	-9168
ini	-9169
kap	-9170
pat	-9171
over	-9172
rain	-9173
▁jes	-9174
▁oct	-9175
▁rio	-9176
durch	-9177
ierer	-9178
lines	-9179
ätter	-9180
▁abra	-9181
▁brow	-9182
▁dots	-9183
▁hing	-9184
▁impl	-9185
▁shad	-9186
▁stir	-9187
▁tsun	-9188
ending	-9189
▁blieb	-9190
▁blogs	-9191
▁metal	-9192
chester	-9193
fordert	-9194
▁assist	-9195
▁buying	-9196
▁define	-9197
▁gottes	-9198
▁inhalt	-9199
▁langer	-9200
▁newton	-9201
▁orange	-9202
▁verknü	-9203
▁verlie	-9204
▁zauber	-9205
schritte	-9206
▁courage	-9207
▁cutting	-9208
▁eastern	-9209
▁gefällt	-9210
▁müssten	-9211
▁solange	-9212
▁sources	-9213
besondere	-9214
▁convince	-9215
▁existenz	-9216
▁gefallen	-9217
▁speziell	-9218
▁employees	-9219
▁geschickt	-9220
▁invention	-9221
▁typically	-9222
▁australien	-9223
▁initiative	-9224
▁laboratory	-9225
▁photographs	-9226
▁restaurants	-9227
▁menschlicher	-9228
▁außergewöhnlich	-9229
▁internationalen	-9230
-1	-9231
500	-9232
don	-9233
ost	-9234
bles	-9235
bors	-9236
nach	-9237
▁21.	-9238
▁ing	-9239
▁ped	-9240
ieben	-9241
unken	-9242
▁corn	-9243
▁enzy	-9244
▁josh	-9245
▁pole	-9246
▁rief	-9247
▁soul	-9248
▁stun	-9249
artige	-9250
source	-9251
▁admit	-9252
▁intim	-9253
▁pilot	-9254
▁proto	-9255
▁recip	-9256
▁waves	-9257
▁agenda	-9258
▁elimin	-9259
▁former	-9260
▁gegend	-9261
zusetzen	-9262
▁abraham	-9263
▁players	-9264
▁scratch	-9265
▁vietnam	-9266
forschung	-9267
▁digitale	-9268
▁epidemic	-9269
▁explains	-9270
versorgung	-9271
▁berichten	-9272
▁existence	-9273
▁radiation	-9274
▁diskussion	-9275
▁perception	-9276
▁experienced	-9277
▁mitarbeiter	-9278
▁insbesondere	-9279
isa	-9280
önt	-9281
▁eu	-9282
cons	-9283
kind	-9284
mehr	-9285
würd	-9286
▁biz	-9287
▁gam	-9288
weile	-9289
▁cast	-9290
▁pion	-9291
▁stro	-9292
▁swim	-9293
anging	-9294
gehend	-9295
▁anerk	-9296
▁anzus	-9297
▁court	-9298
▁enden	-9299
▁erzie	-9300
▁films	-9301
▁fälle	-9302
▁piano	-9303
▁advent	-9304
▁ausgel	-9305
▁gelöst	-9306
▁houses	-9307
▁ladies	-9308
▁manage	-9309
▁nachts	-9310
▁romant	-9311
▁safety	-9312
▁willst	-9313
sprechen	-9314
▁applied	-9315
▁besitzt	-9316
▁centers	-9317
▁electro	-9318
▁komment	-9319
▁primary	-9320
▁spielte	-9321
▁äußerst	-9322
▁circumst	-9323
▁director	-9324
▁generate	-9325
▁geräusch	-9326
▁identify	-9327
▁lifetime	-9328
▁marriage	-9329
▁schätzen	-9330
▁transfer	-9331
▁trillion	-9332
▁gesichter	-9333
▁religions	-9334
▁großmutter	-9335
▁chemikalien	-9336
▁comfortable	-9337
▁statistiken	-9338
▁afrikanischen	-9339
▁schwierigkeiten	-9340
aks	-9341
ata	-9342
ati	-9343
hel	-9344
isf	-9345
ras	-9346
toc	-9347
vis	-9348
ader	-9349
burg	-9350
iche	-9351
ienz	-9352
rägt	-9353
▁ded	-9354
▁mim	-9355
lying	-9356
rechn	-9357
riebs	-9358
rooms	-9359
▁gain	-9360
▁hans	-9361
▁hits	-9362
▁volk	-9363
anders	-9364
estyle	-9365
▁3,000	-9366
▁bauch	-9367
▁feder	-9368
▁hallo	-9369
▁reput	-9370
▁stuhl	-9371
▁zitat	-9372
▁bauten	-9373
▁belieb	-9374
▁compos	-9375
▁grosse	-9376
▁riesen	-9377
▁survey	-9378
material	-9379
▁hierher	-9380
▁protest	-9381
▁signale	-9382
▁solcher	-9383
▁umgeben	-9384
▁exchange	-9385
▁gesichts	-9386
▁schatten	-9387
▁sentence	-9388
▁southern	-9389
▁versteht	-9390
▁bekannten	-9391
▁bibliothe	-9392
▁erfindung	-9393
▁naturally	-9394
▁efficiency	-9395
▁represents	-9396
▁verwandelt	-9397
▁vulnerable	-9398
▁mi	-9399
▁mt	-9400
eres	-9401
fach	-9402
fert	-9403
irat	-9404
nahm	-9405
ught	-9406
▁10-	-9407
▁jac	-9408
▁rub	-9409
▁seh	-9410
ancen	-9411
itern	-9412
neten	-9413
rogen	-9414
▁chef	-9415
▁coca	-9416
▁dogs	-9417
▁ipod	-9418
▁lift	-9419
▁nick	-9420
▁scen	-9421
▁shut	-9422
▁thro	-9423
▁wine	-9424
haften	-9425
iertes	-9426
▁5,000	-9427
▁brook	-9428
▁diver	-9429
▁febru	-9430
▁folgt	-9431
▁kabel	-9432
▁physi	-9433
▁risks	-9434
▁taste	-9435
▁theme	-9436
prozess	-9437
stellte	-9438
▁assign	-9439
▁blumen	-9440
▁deeper	-9441
▁eingel	-9442
▁entrop	-9443
▁erlaub	-9444
▁erwart	-9445
▁gelebt	-9446
▁herren	-9447
▁oxytoc	-9448
achstums	-9449
▁berühmt	-9450
▁einiges	-9451
▁promise	-9452
▁selling	-9453
▁symmetr	-9454
▁testing	-9455
▁verring	-9456
▁verschm	-9457
▁viertel	-9458
▁zuhören	-9459
▁arbeiter	-9460
▁birthday	-9461
▁schlafen	-9462
▁beinhaltet	-9463
▁definitely	-9464
▁geschlecht	-9465
▁introduced	-9466
▁personally	-9467
▁properties	-9468
▁schlechter	-9469
▁environments	-9470
▁faszinierend	-9471
▁unterhaltung	-9472
▁internationale	-9473
▁ly	-9474
▁ng	-9475
cont	-9476
ihad	-9477
iler	-9478
ugel	-9479
▁lic	-9480
▁phr	-9481
▁pum	-9482
gling	-9483
igend	-9484
▁buck	-9485
▁clay	-9486
▁mush	-9487
▁unus	-9488
▁weak	-9489
bieten	-9490
enness	-9491
icious	-9492
kosten	-9493
wenden	-9494
▁drauf	-9495
▁grüne	-9496
▁koran	-9497
▁serve	-9498
▁shark	-9499
▁ultra	-9500
▁credit	-9501
▁driver	-9502
▁enorme	-9503
▁führer	-9504
▁heißen	-9505
▁stattf	-9506
▁unlike	-9507
▁überqu	-9508
▁capture	-9509
▁konserv	-9510
▁lächeln	-9511
▁maßstab	-9512
▁musical	-9513
▁graduate	-9514
▁hydrogen	-9515
▁prepared	-9516
▁struggle	-9517
▁ähnliche	-9518
▁behaviors	-9519
▁bemerkens	-9520
▁bereichen	-9521
▁beschloss	-9522
▁computing	-9523
▁convinced	-9524
▁explosion	-9525
▁gegründet	-9526
▁processes	-9527
▁simulation	-9528
▁akzeptieren	-9529
▁allgemeinen	-9530
▁connections	-9531
▁sicherheits	-9532
▁transparent	-9533
urm	-9534
▁3.	-9535
▁pc	-9536
erie	-9537
ikes	-9538
klen	-9539
leib	-9540
uses	-9541
zipl	-9542
▁hun	-9543
▁sac	-9544
barer	-9545
gence	-9546
lades	-9547
preis	-9548
▁grat	-9549
▁gree	-9550
▁leon	-9551
▁remo	-9552
rative	-9553
▁aston	-9554
▁broke	-9555
▁damen	-9556
▁folie	-9557
▁liked	-9558
▁maxim	-9559
▁stahl	-9560
▁wofür	-9561
achtung	-9562
▁facing	-9563
▁farmer	-9564
▁grünen	-9565
▁handel	-9566
▁lincol	-9567
▁poetry	-9568
▁prefer	-9569
▁recycl	-9570
▁rocket	-9571
▁senses	-9572
▁worauf	-9573
computer	-9574
qualität	-9575
▁austaus	-9576
▁cooking	-9577
▁germany	-9578
▁implant	-9579
▁italien	-9580
▁mistake	-9581
▁orchest	-9582
▁replace	-9583
▁sending	-9584
▁visible	-9585
▁anstelle	-9586
▁determin	-9587
▁freundin	-9588
▁location	-9589
▁mehrheit	-9590
▁official	-9591
▁oxytocin	-9592
▁requires	-9593
▁banglades	-9594
▁gegenwart	-9595
▁generally	-9596
▁pollution	-9597
▁wondering	-9598
▁überlegen	-9599
▁engagement	-9600
▁erwachsene	-9601
▁verbrechen	-9602
▁bedürfnisse	-9603
▁politicians	-9604
▁vorzustellen	-9605
ütz	-9606
abol	-9607
kung	-9608
mill	-9609
osex	-9610
äuse	-9611
▁alb	-9612
▁fed	-9613
▁fif	-9614
▁hut	-9615
inted	-9616
äufer	-9617
▁cath	-9618
▁dumm	-9619
▁kamp	-9620
▁legt	-9621
▁nähr	-9622
▁obst	-9623
▁pool	-9624
▁sitz	-9625
▁stad	-9626
▁teuf	-9627
illing	-9628
imming	-9629
▁atoms	-9630
▁baute	-9631
▁beibr	-9632
▁goods	-9633
▁march	-9634
▁nukle	-9635
▁pfund	-9636
▁plans	-9637
▁refer	-9638
▁scott	-9639
▁sowas	-9640
▁staff	-9641
▁stern	-9642
▁upper	-9643
impanze	-9644
itarian	-9645
ungsver	-9646
▁alters	-9647
▁blauen	-9648
▁bottle	-9649
▁forced	-9650
▁garage	-9651
▁height	-9652
▁kümmer	-9653
▁linked	-9654
▁metall	-9655
▁mirror	-9656
▁solved	-9657
▁spezif	-9658
sprozess	-9659
▁buchsta	-9660
▁eindeut	-9661
▁fingers	-9662
▁impress	-9663
▁insulin	-9664
▁laptops	-9665
▁lokalen	-9666
▁momente	-9667
▁unusual	-9668
▁watched	-9669
▁zeitung	-9670
▁betracht	-9671
▁echtzeit	-9672
▁expected	-9673
▁langweil	-9674
▁momentan	-9675
▁penguins	-9676
▁received	-9677
▁wireless	-9678
▁chimpanze	-9679
▁einfaches	-9680
▁components	-9681
▁gemeinsame	-9682
▁moralische	-9683
▁psychology	-9684
▁zusätzlich	-9685
▁großartigen	-9686
wä	-9687
ani	-9688
bom	-9689
dam	-9690
ruh	-9691
▁rb	-9692
alem	-9693
jahr	-9694
▁aer	-9695
▁dut	-9696
▁göt	-9697
▁por	-9698
▁vot	-9699
▁wei	-9700
akers	-9701
bevöl	-9702
burgh	-9703
rufen	-9704
▁genü	-9705
▁gulf	-9706
▁haar	-9707
▁jane	-9708
▁runs	-9709
▁sees	-9710
▁sett	-9711
▁tick	-9712
▁unit	-9713
ammelt	-9714
bilden	-9715
fernen	-9716
vation	-9717
▁amate	-9718
▁anger	-9719
▁arist	-9720
▁brian	-9721
▁champ	-9722
▁honey	-9723
▁notes	-9724
▁roots	-9725
▁rufen	-9726
▁songs	-9727
▁vital	-9728
osphäre	-9729
▁critic	-9730
▁inevit	-9731
▁pulled	-9732
▁singen	-9733
▁afrikas	-9734
▁circuit	-9735
▁grundle	-9736
▁lincoln	-9737
▁opinion	-9738
▁quarter	-9739
▁schicks	-9740
▁trinken	-9741
▁ausgeben	-9742
▁darunter	-9743
▁mikroben	-9744
▁psychiat	-9745
▁ancestors	-9746
▁carefully	-9747
▁entfernen	-9748
▁kontinent	-9749
▁schauspiel	-9750
▁veränderte	-9751
▁unterstützt	-9752
▁überraschend	-9753
ws	-9754
kamp	-9755
rass	-9756
rete	-9757
▁ego	-9758
▁ruf	-9759
▁tab	-9760
nungs	-9761
teuer	-9762
ützen	-9763
▁böse	-9764
▁eink	-9765
▁farb	-9766
▁hurt	-9767
▁imit	-9768
▁lake	-9769
▁marg	-9770
▁rout	-9771
▁seht	-9772
ichert	-9773
▁blatt	-9774
▁bronx	-9775
▁buddh	-9776
▁imple	-9777
▁jesus	-9778
▁probe	-9779
▁reven	-9780
▁shang	-9781
▁sides	-9782
▁weiße	-9783
▁wovon	-9784
energie	-9785
▁bubble	-9786
▁eigent	-9787
▁ingred	-9788
▁sample	-9789
▁tanzen	-9790
▁vorder	-9791
▁mosquit	-9792
▁verschl	-9793
losigkeit	-9794
▁carrying	-9795
▁hardware	-9796
▁phosphor	-9797
▁hospitals	-9798
▁vermeiden	-9799
bevölkerung	-9800
▁discussion	-9801
▁healthcare	-9802
▁passionate	-9803
▁percentage	-9804
▁situations	-9805
▁übernehmen	-9806
▁exploration	-9807
▁irgendjemand	-9808
▁menschliches	-9809
▁collaboration	-9810
fle	-9811
sex	-9812
chel	-9813
olum	-9814
oons	-9815
uits	-9816
▁gle	-9817
▁ras	-9818
▁sla	-9819
▁tam	-9820
▁twe	-9821
boden	-9822
kehrt	-9823
orted	-9824
pfung	-9825
pping	-9826
staat	-9827
▁elef	-9828
▁grie	-9829
▁kath	-9830
▁kurs	-9831
▁tons	-9832
▁wake	-9833
ichern	-9834
kultur	-9835
werken	-9836
▁pause	-9837
▁pharm	-9838
▁renew	-9839
▁scann	-9840
▁shame	-9841
▁süden	-9842
▁wüste	-9843
itution	-9844
▁anatom	-9845
▁größen	-9846
▁kirche	-9847
▁löcher	-9848
▁skulpt	-9849
▁tiefen	-9850
▁willen	-9851
▁aussage	-9852
▁burning	-9853
▁empathy	-9854
▁risiken	-9855
▁collapse	-9856
▁meetings	-9857
▁mistakes	-9858
▁perfekte	-9859
▁webseite	-9860
▁angestell	-9861
▁anwendung	-9862
▁awareness	-9863
▁erweitern	-9864
▁langfrist	-9865
▁spiritual	-9866
▁speziellen	-9867
▁vorhersagen	-9868
▁präsentation	-9869
▁manufacturing	-9870
▁interpretation	-9871
pra	-9872
rix	-9873
rol	-9874
▁iv	-9875
agon	-9876
ario	-9877
gant	-9878
grad	-9879
▁dow	-9880
▁kos	-9881
▁sav	-9882
▁völ	-9883
frien	-9884
krise	-9885
▁hers	-9886
▁ride	-9887
▁seid	-9888
▁zoom	-9889
istent	-9890
▁erdbe	-9891
▁hallu	-9892
▁ohren	-9893
▁pizza	-9894
▁sovie	-9895
▁stere	-9896
▁wired	-9897
fassung	-9898
osphere	-9899
▁akadem	-9900
▁andrew	-9901
▁anfing	-9902
▁driven	-9903
▁fisher	-9904
▁hoping	-9905
▁kanada	-9906
▁mengen	-9907
▁tonnen	-9908
▁channel	-9909
▁depends	-9910
▁encoura	-9911
▁fahrrad	-9912
▁konflik	-9913
▁nachden	-9914
▁stephen	-9915
▁veranst	-9916
▁besseres	-9917
▁exercise	-9918
▁internal	-9919
▁lebenden	-9920
▁introduce	-9921
▁neighbors	-9922
▁satellite	-9923
▁wohlstand	-9924
▁geographic	-9925
▁destruction	-9926
▁explanation	-9927
▁geschlossen	-9928
▁philanthrop	-9929
▁situationen	-9930
▁ursprünglich	-9931
▁persönlichkeit	-9932
uk	-9933
bir	-9934
can	-9935
ups	-9936
▁55	-9937
west	-9938
▁19.	-9939
▁adj	-9940
▁ink	-9941
▁vit	-9942
ckten	-9943
hlend	-9944
igern	-9945
scale	-9946
schau	-9947
seins	-9948
wesen	-9949
▁aspe	-9950
▁club	-9951
▁jazz	-9952
▁länd	-9953
▁sech	-9954
profit	-9955
schrän	-9956
▁cards	-9957
▁deser	-9958
▁facts	-9959
▁fokus	-9960
▁ought	-9961
▁split	-9962
▁august	-9963
▁bedarf	-9964
▁ergibt	-9965
▁ozeane	-9966
▁robust	-9967
▁zusätz	-9968
▁aufgere	-9969
▁closely	-9970
▁dropped	-9971
▁erneuer	-9972
▁gekauft	-9973
▁grossen	-9974
▁johnson	-9975
▁quantum	-9976
▁trocken	-9977
▁zentral	-9978
▁bedenken	-9979
▁metapher	-9980
▁microbes	-9981
▁embarrass	-9982
▁encourage	-9983
▁gebraucht	-9984
▁interests	-9985
▁beschreibt	-9986
▁prinzipien	-9987
▁überwinden	-9988
▁aktivitäten	-9989
▁educational	-9990
▁kombination	-9991
▁sophisticated	-9992
dp	-9993
obi	-9994
ctic	-9995
hrte	-9996
inkt	-9997
vely	-9998
whel	-9999
äden	-10000
▁11.	-10001
▁rig	-10002
athan	-10003
▁bicy	-10004
▁defe	-10005
▁eggs	-10006
▁hong	-10007
▁höre	-10008
▁klim	-10009
▁lens	-10010
▁nels	-10011
▁plot	-10012
▁pump	-10013
▁quer	-10014
▁tape	-10015
▁temp	-10016
athers	-10017
isters	-10018
lösung	-10019
▁added	-10020
▁error	-10021
▁grain	-10022
▁ridic	-10023
▁stehe	-10024
▁verhe	-10025
▁voran	-10026
▁freien	-10027
▁grippe	-10028
▁instru	-10029
▁kannte	-10030
▁kriegs	-10031
▁stücke	-10032
▁unfall	-10033
▁ansieht	-10034
▁bekomme	-10035
▁dauerte	-10036
▁reverse	-10037
▁therapy	-10038
▁overwhel	-10039
▁shanghai	-10040
▁synchron	-10041
▁weiterer	-10042
leistungen	-10043
▁betreiben	-10044
▁demograph	-10045
▁dieselben	-10046
▁strategie	-10047
▁activities	-10048
▁religionen	-10049
▁weltweiten	-10050
▁innovations	-10051
▁inspirieren	-10052
▁stammzellen	-10053
▁conservation	-10054
▁fortschritte	-10055
▁bemerkenswert	-10056
▁medizinischen	-10057
▁transportation	-10058
▁wirtschaftliche	-10059
lyn	-10060
ole	-10061
keys	-10062
lief	-10063
thal	-10064
▁spo	-10065
▁tri	-10066
▁wüs	-10067
scher	-10068
stieg	-10069
unate	-10070
▁beiz	-10071
▁benj	-10072
▁deta	-10073
▁exec	-10074
▁feyn	-10075
▁horm	-10076
▁meme	-10077
▁peer	-10078
▁rush	-10079
▁sets	-10080
▁trug	-10081
ducing	-10082
fassen	-10083
kungen	-10084
punkte	-10085
▁korre	-10086
▁paras	-10087
▁resil	-10088
▁worum	-10089
▁übert	-10090
▁aftern	-10091
▁brücke	-10092
▁detect	-10093
▁fakten	-10094
▁nelson	-10095
▁puzzle	-10096
▁senden	-10097
▁soweit	-10098
▁steuer	-10099
▁umfeld	-10100
▁actions	-10101
▁enthält	-10102
▁factors	-10103
▁include	-10104
▁kapitel	-10105
▁reached	-10106
▁singing	-10107
▁tsunami	-10108
▁aufnahme	-10109
▁sunlight	-10110
▁ultimate	-10111
▁traveling	-10112
▁electronic	-10113
▁meaningful	-10114
▁wundervoll	-10115
▁instruments	-10116
▁schwieriger	-10117
▁bevölkerungs	-10118
▁konzentriert	-10119
▁presentation	-10120
▁untersuchung	-10121
ema	-10122
mot	-10123
half	-10124
ocks	-10125
olds	-10126
reht	-10127
rüst	-10128
▁abh	-10129
▁cub	-10130
▁lee	-10131
▁okt	-10132
affen	-10133
estic	-10134
iture	-10135
iveau	-10136
kular	-10137
opath	-10138
▁asks	-10139
▁clou	-10140
▁cure	-10141
▁kond	-10142
▁lebe	-10143
▁lieb	-10144
▁mile	-10145
▁mini	-10146
▁nase	-10147
▁tent	-10148
▁till	-10149
elling	-10150
ienten	-10151
jected	-10152
rennen	-10153
▁atmen	-10154
▁claim	-10155
▁embed	-10156
▁gewin	-10157
▁globe	-10158
▁günst	-10159
▁hawai	-10160
▁indic	-10161
▁kevin	-10162
▁memor	-10163
▁stret	-10164
▁topic	-10165
▁veter	-10166
▁zwang	-10167
▁achten	-10168
▁besagt	-10169
▁bestät	-10170
▁genius	-10171
▁gewiss	-10172
▁length	-10173
▁mittag	-10174
▁regard	-10175
▁rollen	-10176
▁satisf	-10177
ographer	-10178
pendence	-10179
▁100.000	-10180
▁drücken	-10181
▁feature	-10182
▁mittels	-10183
▁verstär	-10184
▁anschein	-10185
▁football	-10186
▁geholfen	-10187
▁kongress	-10188
▁recorded	-10189
▁swimming	-10190
▁unmittel	-10191
▁economist	-10192
▁encounter	-10193
▁framework	-10194
▁geräusche	-10195
▁geschmack	-10196
▁kostenlos	-10197
▁movements	-10198
▁südafrika	-10199
▁erinnerung	-10200
▁productive	-10201
▁wahrnehmen	-10202
▁combination	-10203
▁deutschland	-10204
▁gegenseitig	-10205
▁gerechtigkeit	-10206
ki	-10207
oz	-10208
▁ba	-10209
▁pm	-10210
achs	-10211
tele	-10212
▁apr	-10213
▁dum	-10214
▁jet	-10215
▁nir	-10216
▁ähn	-10217
artig	-10218
linge	-10219
uther	-10220
▁2050	-10221
▁bezü	-10222
▁fake	-10223
▁hilf	-10224
▁hook	-10225
▁milk	-10226
▁resc	-10227
▁tack	-10228
▁tube	-10229
ternal	-10230
▁1.000	-10231
▁clint	-10232
▁draht	-10233
▁fährt	-10234
▁küste	-10235
▁lügen	-10236
▁reson	-10237
▁route	-10238
▁sight	-10239
▁weihn	-10240
▁woran	-10241
inction	-10242
plicity	-10243
sterben	-10244
▁astron	-10245
▁barrel	-10246
▁comics	-10247
▁flücht	-10248
▁neurow	-10249
▁stärke	-10250
▁tiefer	-10251
▁amounts	-10252
▁annahme	-10253
▁besorgt	-10254
▁cameras	-10255
▁discipl	-10256
▁falling	-10257
▁feynman	-10258
▁gebiete	-10259
▁islands	-10260
▁liefern	-10261
▁positiv	-10262
▁release	-10263
▁streben	-10264
▁tonight	-10265
icherheit	-10266
probieren	-10267
▁diagramm	-10268
▁dramatic	-10269
▁ereignis	-10270
▁leichter	-10271
▁occasion	-10272
▁physiker	-10273
▁regionen	-10274
▁resultat	-10275
▁wherever	-10276
▁aufnehmen	-10277
▁ingenieur	-10278
▁tausenden	-10279
▁teilweise	-10280
▁architects	-10281
▁beibringen	-10282
▁bezeichnet	-10283
▁conclusion	-10284
▁confidence	-10285
▁irgendeine	-10286
▁chinesische	-10287
▁lebenserwart	-10288
▁technological	-10289
gu	-10290
not	-10291
anes	-10292
esth	-10293
klär	-10294
look	-10295
osch	-10296
ulse	-10297
älde	-10298
▁gdp	-10299
▁hug	-10300
auben	-10301
level	-10302
menge	-10303
vable	-10304
weite	-10305
▁froh	-10306
▁hühn	-10307
▁kalt	-10308
▁tatt	-10309
▁trig	-10310
▁wolf	-10311
plätze	-10312
ätzung	-10313
▁doubt	-10314
▁kenia	-10315
▁skill	-10316
▁spann	-10317
▁teilt	-10318
▁whist	-10319
entiell	-10320
▁ausbre	-10321
▁county	-10322
▁enthus	-10323
▁fingen	-10324
▁fokuss	-10325
▁meinte	-10326
▁realen	-10327
▁termin	-10328
ikations	-10329
▁einzeln	-10330
▁standen	-10331
▁surgeon	-10332
▁taschen	-10333
▁unterdr	-10334
▁vaccine	-10335
▁abstract	-10336
▁hierarch	-10337
▁occurred	-10338
▁paradigm	-10339
▁stronger	-10340
▁tracking	-10341
▁verstehe	-10342
▁wertvoll	-10343
▁billionen	-10344
▁brasilien	-10345
▁algorithms	-10346
▁economists	-10347
▁mechanical	-10348
▁wenigstens	-10349
▁biologische	-10350
▁gemeinsamen	-10351
▁sonnenlicht	-10352
▁konsequenzen	-10353
▁verschwunden	-10354
▁circumstances	-10355
▁fundamentally	-10356
▁interessantes	-10357
bern	-10358
förm	-10359
mart	-10360
miss	-10361
uche	-10362
vest	-10363
ätzt	-10364
▁anh	-10365
▁cer	-10366
▁fox	-10367
▁jam	-10368
▁odd	-10369
alled	-10370
igare	-10371
stuhl	-10372
▁ages	-10373
▁bene	-10374
▁cens	-10375
▁ears	-10376
▁erwä	-10377
▁joke	-10378
▁mosk	-10379
▁sper	-10380
▁tort	-10381
freund	-10382
▁depth	-10383
▁guard	-10384
▁larry	-10385
▁plate	-10386
▁roads	-10387
▁roman	-10388
▁räume	-10389
greifen	-10390
▁acting	-10391
▁aufbau	-10392
▁ausgew	-10393
▁drives	-10394
▁erzähl	-10395
▁leiten	-10396
▁linear	-10397
▁pocket	-10398
▁regime	-10399
▁rennen	-10400
▁sensor	-10401
▁combine	-10402
▁comment	-10403
▁fishing	-10404
▁mächtig	-10405
▁outcome	-10406
▁verlang	-10407
▁william	-10408
▁zweimal	-10409
schriften	-10410
▁nebenbei	-10411
▁springen	-10412
▁wahnsinn	-10413
▁afternoon	-10414
▁aufgeregt	-10415
▁behaupten	-10416
▁increased	-10417
▁mikroskop	-10418
▁technique	-10419
▁zuschauer	-10420
▁reputation	-10421
▁beschrieben	-10422
▁innovationen	-10423
▁mittlerweile	-10424
kö	-10425
▁33	-10426
▁jh	-10427
▁lg	-10428
atar	-10429
emen	-10430
thur	-10431
▁amy	-10432
▁dör	-10433
▁lam	-10434
aktor	-10435
behör	-10436
being	-10437
gespr	-10438
kette	-10439
▁bahn	-10440
▁bern	-10441
▁eier	-10442
▁limb	-10443
▁tast	-10444
▁alarm	-10445
▁alien	-10446
▁anget	-10447
▁april	-10448
▁curve	-10449
▁dreie	-10450
▁eisen	-10451
▁lokal	-10452
▁sorge	-10453
▁zentr	-10454
rechend	-10455
station	-10456
stimmen	-10457
▁daniel	-10458
▁flügel	-10459
▁formal	-10460
▁formed	-10461
▁handle	-10462
▁lungen	-10463
▁märkte	-10464
▁season	-10465
▁slides	-10466
▁vieles	-10467
pflanzen	-10468
▁decline	-10469
▁flowers	-10470
▁führten	-10471
▁glaubte	-10472
▁manchen	-10473
▁manipul	-10474
▁offenen	-10475
▁rapidly	-10476
▁records	-10477
▁treiben	-10478
▁accurate	-10479
▁erlebnis	-10480
▁geschenk	-10481
▁infected	-10482
▁sandwich	-10483
▁schritte	-10484
▁vielmehr	-10485
▁bezüglich	-10486
▁gentlemen	-10487
▁telescope	-10488
▁behavioral	-10489
▁controlled	-10490
▁dreidimens	-10491
▁fasziniert	-10492
▁unexpected	-10493
▁verglichen	-10494
▁durchführen	-10495
▁elektrische	-10496
▁verursachen	-10497
▁entertainment	-10498
oe	-10499
kat	-10500
opf	-10501
urz	-10502
zut	-10503
▁rö	-10504
ency	-10505
geme	-10506
ihen	-10507
rier	-10508
▁enl	-10509
▁jur	-10510
▁ram	-10511
agnet	-10512
build	-10513
etten	-10514
opter	-10515
▁1000	-10516
▁dust	-10517
▁flip	-10518
▁furn	-10519
▁hipp	-10520
▁icon	-10521
▁lung	-10522
▁radi	-10523
▁rose	-10524
▁tech	-10525
etzung	-10526
nommen	-10527
quelle	-10528
reiche	-10529
▁armee	-10530
▁beige	-10531
▁bones	-10532
▁compl	-10533
▁erwär	-10534
▁hunde	-10535
▁inher	-10536
▁inten	-10537
▁misch	-10538
▁noten	-10539
▁rwand	-10540
▁shell	-10541
igungen	-10542
▁advice	-10543
▁clouds	-10544
▁gemüse	-10545
▁potenz	-10546
▁schalt	-10547
▁airport	-10548
▁classic	-10549
▁corresp	-10550
▁cricket	-10551
▁defense	-10552
▁erkannt	-10553
▁evening	-10554
▁funding	-10555
▁mandela	-10556
▁tatsäch	-10557
▁unteren	-10558
▁younger	-10559
abilities	-10560
arbeitung	-10561
▁anschaut	-10562
▁combined	-10563
▁creature	-10564
▁erweiter	-10565
▁features	-10566
▁measured	-10567
▁proteine	-10568
▁sichtbar	-10569
▁weisheit	-10570
▁authority	-10571
▁betrieben	-10572
▁continued	-10573
▁erforscht	-10574
▁footprint	-10575
▁komplexen	-10576
▁literatur	-10577
technologie	-10578
▁buchstaben	-10579
▁interessen	-10580
▁literature	-10581
▁philosophy	-10582
▁automatisch	-10583
▁participate	-10584
▁aufgewachsen	-10585
▁vorstellungen	-10586
geschwindigkeit	-10587
bod	-10588
itu	-10589
kür	-10590
ping	-10591
what	-10592
▁abl	-10593
▁krä	-10594
▁paz	-10595
▁skl	-10596
▁tib	-10597
0,000	-10598
lings	-10599
ognit	-10600
ogram	-10601
utete	-10602
zepte	-10603
▁2002	-10604
▁anze	-10605
▁bike	-10606
▁busy	-10607
▁eint	-10608
▁fung	-10609
▁glad	-10610
▁hide	-10611
▁palm	-10612
▁rönt	-10613
▁seti	-10614
▁thin	-10615
indert	-10616
neiden	-10617
stechn	-10618
winkel	-10619
▁jener	-10620
▁jones	-10621
▁mcdon	-10622
▁queen	-10623
▁signs	-10624
▁umher	-10625
▁womit	-10626
artigen	-10627
etische	-10628
identen	-10629
otherap	-10630
theorie	-10631
version	-10632
▁biolum	-10633
▁expans	-10634
▁faktor	-10635
▁hinauf	-10636
▁involv	-10637
▁output	-10638
▁remain	-10639
▁rezept	-10640
▁ritual	-10641
▁schuhe	-10642
▁sphere	-10643
▁anstren	-10644
▁clothes	-10645
▁concert	-10646
▁doppelt	-10647
▁embrace	-10648
▁engaged	-10649
▁erhöhen	-10650
▁quellen	-10651
▁regions	-10652
▁schicht	-10653
▁spenden	-10654
▁sternen	-10655
▁unknown	-10656
connected	-10657
▁erfinder	-10658
▁existing	-10659
▁hinunter	-10660
▁lebendig	-10661
▁messages	-10662
▁romantic	-10663
▁seltsame	-10664
▁wondered	-10665
oberfläche	-10666
▁darstellt	-10667
▁determine	-10668
▁folgenden	-10669
▁grundlage	-10670
▁lifestyle	-10671
▁schmerzen	-10672
▁verbrauch	-10673
▁bezeichnen	-10674
▁inzwischen	-10675
▁regierungs	-10676
▁underwater	-10677
▁unterricht	-10678
▁appropriate	-10679
▁ausstellung	-10680
▁dargestellt	-10681
▁dimensionen	-10682
▁applications	-10683
▁fantastische	-10684
▁sustainability	-10685
▁lebenserwartung	-10686
bm	-10687
dis	-10688
gie	-10689
uhr	-10690
▁2,	-10691
▁29	-10692
gely	-10693
▁cas	-10694
▁raw	-10695
▁tea	-10696
insel	-10697
meter	-10698
oking	-10699
osing	-10700
rolle	-10701
▁2011	-10702
▁bosn	-10703
▁clar	-10704
▁erhe	-10705
▁gray	-10706
▁loop	-10707
▁root	-10708
▁stäm	-10709
bücher	-10710
▁climb	-10711
▁dress	-10712
▁enthü	-10713
▁karik	-10714
▁keeps	-10715
▁lying	-10716
▁schme	-10717
▁thick	-10718
▁billig	-10719
▁chocol	-10720
▁extens	-10721
▁transc	-10722
▁winzig	-10723
▁ältere	-10724
▁blätter	-10725
▁defined	-10726
▁indones	-10727
▁monkeys	-10728
▁operate	-10729
▁options	-10730
▁zeigten	-10731
▁älteren	-10732
▁horrible	-10733
▁krankenh	-10734
▁philosop	-10735
▁physikal	-10736
▁presence	-10737
▁republic	-10738
▁treating	-10739
▁vorteile	-10740
▁basierend	-10741
▁centuries	-10742
▁irgendwel	-10743
▁narrative	-10744
▁umzugehen	-10745
▁biolumines	-10746
▁collection	-10747
▁eingeladen	-10748
▁jahrhunder	-10749
▁operations	-10750
▁physically	-10751
▁wettbewerb	-10752
▁challenging	-10753
▁glücklicher	-10754
▁jahrzehnten	-10755
▁nachgedacht	-10756
▁verbreitung	-10757
▁conventional	-10758
▁kontrolliert	-10759
▁organisieren	-10760
▁überraschung	-10761
ta	-10762
uß	-10763
flü	-10764
hof	-10765
hst	-10766
nes	-10767
▁eb	-10768
▁uh	-10769
aust	-10770
derm	-10771
etch	-10772
gibt	-10773
greg	-10774
urer	-10775
▁frö	-10776
▁rut	-10777
ismen	-10778
itors	-10779
orous	-10780
älter	-10781
▁bath	-10782
▁decl	-10783
▁dens	-10784
▁entt	-10785
▁flew	-10786
▁hybr	-10787
▁intr	-10788
▁mike	-10789
▁zuzu	-10790
rücken	-10791
▁audio	-10792
▁erwar	-10793
▁liver	-10794
▁nahen	-10795
▁slums	-10796
▁stack	-10797
▁style	-10798
▁deaths	-10799
▁killer	-10800
▁spüren	-10801
▁völker	-10802
▁worlds	-10803
▁wright	-10804
▁accompl	-10805
▁dancing	-10806
▁gedicht	-10807
▁kollekt	-10808
▁largely	-10809
▁unclear	-10810
▁violent	-10811
▁weshalb	-10812
fähigkeit	-10813
▁benjamin	-10814
▁dahinter	-10815
▁election	-10816
▁erdbeben	-10817
▁subjects	-10818
▁versagen	-10819
▁virginia	-10820
▁algorithm	-10821
▁aufnahmen	-10822
▁component	-10823
▁protected	-10824
▁recording	-10825
▁reference	-10826
▁selection	-10827
▁storytell	-10828
▁variation	-10829
▁wachstums	-10830
▁eingeführt	-10831
▁expedition	-10832
▁greenhouse	-10833
▁satelliten	-10834
▁zerstörung	-10835
gesellschaft	-10836
▁transformed	-10837
▁voneinander	-10838
▁entdeckungen	-10839
▁grundlegenden	-10840
ria	-10841
▁dv	-10842
code	-10843
icip	-10844
iums	-10845
sver	-10846
yers	-10847
▁350	-10848
▁ate	-10849
▁ooh	-10850
▁toy	-10851
metho	-10852
ünden	-10853
▁abwe	-10854
▁axis	-10855
▁betr	-10856
▁dish	-10857
▁hieß	-10858
friend	-10859
person	-10860
▁comic	-10861
▁highl	-10862
▁spekt	-10863
▁truck	-10864
▁angene	-10865
▁ausger	-10866
▁deiner	-10867
▁falten	-10868
▁geschw	-10869
▁latest	-10870
▁murder	-10871
▁traged	-10872
▁writer	-10873
äuschung	-10874
▁beenden	-10875
▁gemälde	-10876
▁gewählt	-10877
▁herausf	-10878
▁housing	-10879
▁meister	-10880
▁musiker	-10881
▁mystery	-10882
▁remains	-10883
▁röntgen	-10884
▁schönes	-10885
▁solving	-10886
▁concepts	-10887
▁concrete	-10888
▁genügend	-10889
▁offenbar	-10890
▁pinguine	-10891
▁printing	-10892
▁threaten	-10893
▁villages	-10894
▁visuelle	-10895
▁derselben	-10896
▁eindeutig	-10897
▁langsamer	-10898
▁scheinbar	-10899
▁schicksal	-10900
▁bibliothek	-10901
▁entfernung	-10902
▁genetische	-10903
▁simplicity	-10904
▁einstellung	-10905
▁herstellung	-10906
▁wunderbaren	-10907
▁weiterentwick	-10908
▁gemeinschaften	-10909
▁nachhaltigkeit	-10910
cal	-10911
män	-10912
ffiz	-10913
iell	-10914
iene	-10915
ifiz	-10916
ooth	-10917
oßen	-10918
zero	-10919
ziel	-10920
▁hip	-10921
▁sed	-10922
brech	-10923
iking	-10924
ippen	-10925
iters	-10926
linie	-10927
stage	-10928
▁befe	-10929
▁cash	-10930
▁depr	-10931
▁heir	-10932
▁melt	-10933
▁nose	-10934
▁präz	-10935
▁stür	-10936
forest	-10937
gebiet	-10938
messer	-10939
▁decre	-10940
▁embry	-10941
▁estim	-10942
▁fehlt	-10943
▁gefol	-10944
▁städt	-10945
▁tiger	-10946
ishment	-10947
▁abfall	-10948
▁button	-10949
▁comedy	-10950
▁dienen	-10951
▁gelang	-10952
▁höhere	-10953
▁joseph	-10954
▁kindes	-10955
▁landen	-10956
▁lokale	-10957
▁planen	-10958
▁relate	-10959
▁stands	-10960
▁wohlbe	-10961
▁yorker	-10962
▁zufall	-10963
aufnahme	-10964
▁angriff	-10965
▁causing	-10966
▁charity	-10967
▁clinton	-10968
▁figures	-10969
▁habitat	-10970
▁liberal	-10971
▁metabol	-10972
▁millenn	-10973
▁neander	-10974
▁starben	-10975
▁victims	-10976
▁asteroid	-10977
▁beachten	-10978
▁begegnen	-10979
▁bemerkte	-10980
▁diagnose	-10981
▁kleidung	-10982
▁nigerian	-10983
▁schulter	-10984
▁somewhat	-10985
▁untersch	-10986
▁wechseln	-10987
▁copyright	-10988
▁explained	-10989
▁statement	-10990
▁unterwegs	-10991
▁ausgesetzt	-10992
▁directions	-10993
▁geburtstag	-10994
▁ingenieure	-10995
▁jahrzehnte	-10996
▁psychologie	-10997
▁verletzlich	-10998
▁entrepreneur	-10999
▁demonstration	-11000
sl	-11001
bly	-11002
iox	-11003
ona	-11004
ült	-11005
▁gy	-11006
ares	-11007
hour	-11008
üche	-11009
▁adm	-11010
▁bol	-11011
▁gib	-11012
▁nit	-11013
▁ron	-11014
▁ört	-11015
andon	-11016
räume	-11017
unruh	-11018
▁acts	-11019
▁chol	-11020
▁klug	-11021
▁läng	-11022
kräfte	-11023
ueller	-11024
▁angem	-11025
▁blaue	-11026
▁clock	-11027
▁griff	-11028
▁kurve	-11029
▁magie	-11030
▁rooms	-11031
▁silen	-11032
▁walks	-11033
▁weigh	-11034
mittelt	-11035
omagnet	-11036
spieler	-11037
▁berück	-11038
▁clinic	-11039
▁deploy	-11040
▁desper	-11041
▁ethiop	-11042
▁export	-11043
▁gandhi	-11044
▁helium	-11045
▁heroes	-11046
▁joshua	-11047
▁prices	-11048
▁unwahr	-11049
▁wirken	-11050
bekommen	-11051
zuführen	-11052
▁allgeme	-11053
▁anzusch	-11054
▁beunruh	-11055
▁earthqu	-11056
▁frankly	-11057
▁hielten	-11058
▁kingdom	-11059
▁neither	-11060
▁nutzung	-11061
▁parking	-11062
verhalten	-11063
▁batterie	-11064
▁disorder	-11065
▁ernähren	-11066
▁schauten	-11067
▁afrikaner	-11068
▁celebrate	-11069
▁collected	-11070
▁definiert	-11071
▁einschrän	-11072
▁enthalten	-11073
▁kreativen	-11074
▁permanent	-11075
▁recycling	-11076
▁sculpture	-11077
▁sensitive	-11078
▁vergewalt	-11079
▁wichtiges	-11080
zeichnungen	-11081
▁interviews	-11082
▁schwierige	-11083
▁darstellung	-11084
▁instrumente	-11085
▁potentially	-11086
▁intervention	-11087
▁mathematiker	-11088
▁interessanten	-11089
▁klassenzimmer	-11090
ila	-11091
lad	-11092
las	-11093
ora	-11094
oto	-11095
yan	-11096
ärm	-11097
frau	-11098
iner	-11099
inst	-11100
utze	-11101
zone	-11102
öser	-11103
▁30-	-11104
▁hub	-11105
belie	-11106
child	-11107
esome	-11108
icide	-11109
imine	-11110
küste	-11111
worth	-11112
▁beru	-11113
▁loud	-11114
▁plug	-11115
▁wash	-11116
bilder	-11117
dienst	-11118
father	-11119
gesamt	-11120
iosity	-11121
usions	-11122
▁boxes	-11123
▁breed	-11124
▁delhi	-11125
▁dirty	-11126
▁elite	-11127
▁kateg	-11128
▁malen	-11129
▁marsh	-11130
▁minus	-11131
▁shake	-11132
▁wings	-11133
rüstung	-11134
schicht	-11135
▁agency	-11136
▁angeht	-11137
▁boring	-11138
▁correl	-11139
▁diplom	-11140
▁erhöht	-11141
▁flower	-11142
▁fläche	-11143
▁france	-11144
▁gender	-11145
▁intuit	-11146
▁kaufte	-11147
▁repair	-11148
▁shakes	-11149
▁volume	-11150
leistung	-11151
▁fortune	-11152
▁musikal	-11153
▁ägypten	-11154
▁africans	-11155
▁angiogen	-11156
▁constant	-11157
▁dolphins	-11158
▁höchsten	-11159
▁magnetic	-11160
▁released	-11161
▁symmetry	-11162
▁vehicles	-11163
▁wünschte	-11164
▁functions	-11165
▁gebrochen	-11166
▁identical	-11167
▁mitnehmen	-11168
▁reduziert	-11169
▁versteckt	-11170
legenheiten	-11171
▁arabischen	-11172
▁hinzufügen	-11173
▁richtungen	-11174
▁hinterlassen	-11175
▁conversations	-11176
▁nachbarschaft	-11177
ae	-11178
gf	-11179
200	-11180
bul	-11181
eda	-11182
ndr	-11183
▁os	-11184
ense	-11185
▁cup	-11186
▁jag	-11187
▁ski	-11188
▁wem	-11189
esity	-11190
vater	-11191
▁klav	-11192
▁proz	-11193
▁wing	-11194
making	-11195
▁accum	-11196
▁bibel	-11197
▁explo	-11198
▁knapp	-11199
▁legit	-11200
▁verur	-11201
bewusst	-11202
griffen	-11203
zusehen	-11204
örungen	-11205
▁border	-11206
▁candid	-11207
▁feiern	-11208
▁lovely	-11209
▁lächer	-11210
▁papers	-11211
▁paraly	-11212
▁phrase	-11213
▁presse	-11214
▁scared	-11215
▁säuget	-11216
▁awesome	-11217
▁careful	-11218
▁chancen	-11219
▁chapter	-11220
▁erhielt	-11221
▁feeding	-11222
▁letzter	-11223
▁manager	-11224
▁nannten	-11225
▁stretch	-11226
maschinen	-11227
▁chinesen	-11228
▁leuchten	-11229
▁verdient	-11230
▁verschie	-11231
▁indischen	-11232
▁nationale	-11233
▁paintings	-11234
▁vorschlag	-11235
krankheiten	-11236
▁connecting	-11237
▁resistance	-11238
▁grundlegend	-11239
▁moralischen	-11240
▁implications	-11241
▁wunderschöne	-11242
leb	-11243
leg	-11244
uel	-11245
vol	-11246
▁48	-11247
▁bm	-11248
cond	-11249
fung	-11250
icit	-11251
llte	-11252
schm	-11253
uals	-11254
zenz	-11255
▁lon	-11256
▁nom	-11257
▁woo	-11258
▁zip	-11259
▁ärm	-11260
esign	-11261
gebra	-11262
keten	-11263
nügen	-11264
rated	-11265
reift	-11266
ttern	-11267
▁coin	-11268
▁knee	-11269
▁lets	-11270
▁mary	-11271
▁nano	-11272
▁pier	-11273
▁zuge	-11274
opping	-11275
ritten	-11276
stücke	-11277
zahlen	-11278
▁alltä	-11279
▁alpha	-11280
▁asien	-11281
▁beute	-11282
▁bombs	-11283
▁false	-11284
▁logic	-11285
▁moore	-11286
▁persu	-11287
▁stärk	-11288
▁symph	-11289
▁title	-11290
▁tower	-11291
▁toxic	-11292
uchtung	-11293
▁adoles	-11294
▁albert	-11295
▁extend	-11296
▁garant	-11297
▁gesamt	-11298
▁nathan	-11299
▁russia	-11300
▁schach	-11301
▁späten	-11302
▁stayed	-11303
▁trafen	-11304
▁weisen	-11305
▁whales	-11306
jähriger	-11307
▁aspekte	-11308
▁beliebt	-11309
▁charlie	-11310
▁classes	-11311
▁debatte	-11312
▁diszipl	-11313
▁gezogen	-11314
▁kinders	-11315
▁stoppen	-11316
▁drittens	-11317
▁embedded	-11318
▁equation	-11319
▁falschen	-11320
▁gebäuden	-11321
▁genießen	-11322
▁infinite	-11323
▁obsessed	-11324
▁required	-11325
▁schlacht	-11326
▁computern	-11327
▁consumers	-11328
▁exploring	-11329
▁furniture	-11330
▁karikatur	-11331
▁letztlich	-11332
▁niemanden	-11333
▁potenzial	-11334
▁scheitern	-11335
▁schwanger	-11336
▁synthetic	-11337
▁umständen	-11338
▁zunehmend	-11339
▁commitment	-11340
▁populations	-11341
▁vorbereitet	-11342
▁wirtschaftsw	-11343
▁funktionierte	-11344
▁programmieren	-11345
--	-11346
fi	-11347
bal	-11348
ecd	-11349
isl	-11350
pal	-11351
▁kh	-11352
iday	-11353
ifen	-11354
nern	-11355
riff	-11356
spar	-11357
ynth	-11358
▁lew	-11359
▁ohr	-11360
▁rau	-11361
▁wed	-11362
aktiv	-11363
annen	-11364
cence	-11365
comes	-11366
hrten	-11367
iable	-11368
▁1900	-11369
▁bese	-11370
▁knie	-11371
▁kong	-11372
▁mail	-11373
▁nett	-11374
▁sque	-11375
▁stap	-11376
derung	-11377
istics	-11378
mechan	-11379
▁chose	-11380
▁heben	-11381
▁küche	-11382
▁presc	-11383
▁score	-11384
▁staub	-11385
▁unvor	-11386
▁zähne	-11387
sprache	-11388
zwungen	-11389
▁aktion	-11390
▁erneut	-11391
▁facial	-11392
▁hängen	-11393
▁marath	-11394
▁merken	-11395
▁proced	-11396
▁propag	-11397
▁reihen	-11398
▁schnee	-11399
▁surely	-11400
▁tunnel	-11401
▁umgang	-11402
▁extinct	-11403
▁finance	-11404
▁gesetzt	-11405
▁obesity	-11406
▁schlägt	-11407
▁starken	-11408
▁allowing	-11409
▁alphabet	-11410
▁berühren	-11411
▁carolina	-11412
▁erfassen	-11413
▁gebrauch	-11414
▁jenseits	-11415
▁leonardo	-11416
▁lighting	-11417
▁november	-11418
▁vorwärts	-11419
ungssystem	-11420
ussendlich	-11421
▁apartment	-11422
▁arguments	-11423
▁bedrohung	-11424
▁chocolate	-11425
▁christmas	-11426
▁disorders	-11427
▁gegenwärt	-11428
▁inspiring	-11429
▁measuring	-11430
▁spezielle	-11431
▁vergnügen	-11432
▁distributed	-11433
▁eigenschaft	-11434
▁einfachheit	-11435
▁genetischen	-11436
▁interactive	-11437
▁präsentiert	-11438
▁wasserstoff	-11439
▁automatically	-11440
▁schlussendlich	-11441
ele	-11442
mes	-11443
dach	-11444
etti	-11445
gewe	-11446
lock	-11447
unge	-11448
wald	-11449
öten	-11450
▁20-	-11451
▁ain	-11452
▁boo	-11453
▁gip	-11454
▁han	-11455
▁kra	-11456
▁tee	-11457
▁tip	-11458
▁ära	-11459
angle	-11460
hagen	-11461
üssen	-11462
▁akte	-11463
▁beam	-11464
▁desk	-11465
▁dict	-11466
▁mumb	-11467
▁nimm	-11468
▁sang	-11469
klasse	-11470
uchtet	-11471
urance	-11472
▁berge	-11473
▁chief	-11474
▁colum	-11475
▁ethan	-11476
▁fifth	-11477
▁grows	-11478
▁jelly	-11479
▁judge	-11480
▁kolon	-11481
▁kongo	-11482
▁marke	-11483
▁samen	-11484
▁schok	-11485
▁sheep	-11486
▁smoke	-11487
▁unsch	-11488
▁zehnt	-11489
fliegen	-11490
ichtete	-11491
mitglie	-11492
ografie	-11493
▁arthur	-11494
▁autism	-11495
▁divide	-11496
▁fabric	-11497
▁fusion	-11498
▁heaven	-11499
▁hörten	-11500
▁joined	-11501
▁monkey	-11502
▁owners	-11503
▁rwanda	-11504
▁schild	-11505
▁tasche	-11506
▁umwand	-11507
▁welten	-11508
aneously	-11509
▁ausgang	-11510
▁balloon	-11511
▁council	-11512
▁diction	-11513
▁everest	-11514
▁existed	-11515
▁flächen	-11516
▁gemeinn	-11517
▁gericht	-11518
▁opposed	-11519
▁download	-11520
▁eingehen	-11521
▁frighten	-11522
▁gelassen	-11523
▁pregnant	-11524
▁recovery	-11525
▁spektrum	-11526
▁studiert	-11527
▁symptoms	-11528
▁transist	-11529
▁verfolgt	-11530
▁anzusehen	-11531
▁bekämpfen	-11532
▁beteiligt	-11533
▁mechanism	-11534
▁versorgen	-11535
▁ähnliches	-11536
▁besonderen	-11537
▁emotionale	-11538
▁optimistic	-11539
▁verwendung	-11540
▁algorithmen	-11541
▁astonishing	-11542
▁beigebracht	-11543
▁neuigkeiten	-11544
▁partnership	-11545
▁dramatically	-11546
▁elektrischen	-11547
pu	-11548
hne	-11549
▁31	-11550
▁lü	-11551
ails	-11552
avor	-11553
boot	-11554
omes	-11555
onna	-11556
tert	-11557
önen	-11558
▁cod	-11559
▁nin	-11560
▁tja	-11561
fined	-11562
ingly	-11563
lemma	-11564
oring	-11565
oxide	-11566
reibe	-11567
stamm	-11568
urgen	-11569
vielf	-11570
▁asth	-11571
▁bond	-11572
▁dsch	-11573
▁glüh	-11574
▁pitt	-11575
▁rett	-11576
ingend	-11577
▁anten	-11578
▁betrü	-11579
▁chips	-11580
▁congo	-11581
▁crack	-11582
▁kompr	-11583
▁minor	-11584
▁scham	-11585
▁serie	-11586
▁whale	-11587
▁yield	-11588
ionalen	-11589
örtlich	-11590
▁absorb	-11591
▁ausges	-11592
▁devast	-11593
▁herein	-11594
▁höchst	-11595
▁interf	-11596
▁kaputt	-11597
▁kriege	-11598
▁matrix	-11599
▁offene	-11600
▁organe	-11601
▁prosth	-11602
▁remove	-11603
▁rising	-11604
▁schaue	-11605
▁suffer	-11606
▁toilet	-11607
▁unterr	-11608
▁öffnet	-11609
▁anstieg	-11610
▁carried	-11611
▁dilemma	-11612
▁divided	-11613
▁happier	-11614
▁herself	-11615
▁islamic	-11616
▁krieges	-11617
▁niedrig	-11618
▁nowhere	-11619
▁schwere	-11620
▁vessels	-11621
▁anhalten	-11622
▁erfüllen	-11623
▁floating	-11624
▁mehreren	-11625
▁privileg	-11626
▁schweden	-11627
▁umfassen	-11628
▁abgesehen	-11629
▁authentic	-11630
▁berechnen	-11631
▁insgesamt	-11632
▁physicist	-11633
▁providing	-11634
▁reduction	-11635
▁dazwischen	-11636
▁dunkelheit	-11637
▁kulturelle	-11638
▁anscheinend	-11639
▁productivity	-11640
idi	-11641
nik	-11642
alls	-11643
blog	-11644
case	-11645
erer	-11646
ibel	-11647
ints	-11648
vide	-11649
▁190	-11650
▁192	-11651
▁kab	-11652
▁nic	-11653
▁pir	-11654
▁seb	-11655
▁sue	-11656
▁voc	-11657
acles	-11658
ahnen	-11659
ifted	-11660
seher	-11661
think	-11662
virus	-11663
▁2020	-11664
▁dign	-11665
▁dood	-11666
▁ehre	-11667
▁hack	-11668
▁jewe	-11669
▁lego	-11670
▁leop	-11671
▁pale	-11672
bellen	-11673
called	-11674
school	-11675
▁abges	-11676
▁agent	-11677
▁bewer	-11678
▁bible	-11679
▁faced	-11680
▁flash	-11681
▁hello	-11682
▁kreuz	-11683
▁lasse	-11684
▁parks	-11685
▁rauch	-11686
▁usual	-11687
schläge	-11688
▁atomen	-11689
▁fliege	-11690
▁glücks	-11691
▁immune	-11692
▁latein	-11693
▁mumbai	-11694
▁suchte	-11695
▁tasman	-11696
inkommen	-11697
stimmung	-11698
zukommen	-11699
▁bicycle	-11700
▁breathe	-11701
▁ergeben	-11702
▁harvest	-11703
▁homosex	-11704
▁intense	-11705
▁poorest	-11706
▁reflekt	-11707
▁touched	-11708
▁traurig	-11709
▁unbelie	-11710
▁wünsche	-11711
▁zurecht	-11712
▁contrast	-11713
▁fettleib	-11714
▁gegenden	-11715
▁gemessen	-11716
▁getrennt	-11717
▁outcomes	-11718
▁reporter	-11719
▁systemen	-11720
▁winzigen	-11721
▁zurückge	-11722
produktion	-11723
▁belohnung	-11724
▁christian	-11725
▁curiosity	-11726
▁depending	-11727
▁economies	-11728
▁elefanten	-11729
▁empfinden	-11730
▁geschäfte	-11731
▁increases	-11732
▁intention	-11733
▁resultate	-11734
▁uncertain	-11735
▁verfahren	-11736
▁weltkrieg	-11737
▁appreciate	-11738
▁ereignisse	-11739
▁gedächtnis	-11740
▁industries	-11741
▁microscope	-11742
▁performing	-11743
▁processing	-11744
▁schlechtes	-11745
▁sogenannte	-11746
▁surrounded	-11747
▁teilnehmer	-11748
▁übersetzen	-11749
▁philosophie	-11750
▁technischen	-11751
▁wundervolle	-11752
▁biologischen	-11753
▁konfrontiert	-11754
▁psychological	-11755
rot	-11756
wen	-11757
▁mm	-11758
itik	-11759
pfel	-11760
rest	-11761
stät	-11762
älte	-11763
▁anx	-11764
▁coo	-11765
▁erm	-11766
▁obl	-11767
ahmen	-11768
chair	-11769
strom	-11770
▁beij	-11771
▁bold	-11772
▁cand	-11773
▁coch	-11774
▁dame	-11775
▁dear	-11776
▁elev	-11777
▁haie	-11778
▁ours	-11779
▁pour	-11780
▁rang	-11781
▁rice	-11782
▁stab	-11783
▁umso	-11784
körper	-11785
▁anste	-11786
▁aside	-11787
▁blank	-11788
▁breit	-11789
▁enemy	-11790
▁gebur	-11791
▁grace	-11792
▁immen	-11793
▁latin	-11794
▁membr	-11795
▁offiz	-11796
▁param	-11797
▁plays	-11798
▁rocks	-11799
▁uncom	-11800
▁volks	-11801
ammlung	-11802
▁attrib	-11803
▁beherr	-11804
▁commod	-11805
▁dauern	-11806
▁einzus	-11807
▁gewann	-11808
▁hassen	-11809
▁heilen	-11810
▁impuls	-11811
▁kommer	-11812
▁prepar	-11813
▁secure	-11814
▁severe	-11815
▁spoken	-11816
▁sticks	-11817
▁struck	-11818
▁sweden	-11819
▁tested	-11820
▁underg	-11821
appeared	-11822
▁besucht	-11823
▁collaps	-11824
▁federal	-11825
▁herange	-11826
▁lebende	-11827
▁letting	-11828
▁painful	-11829
▁rebuild	-11830
▁samples	-11831
▁silence	-11832
▁stewart	-11833
▁verlauf	-11834
▁atlantic	-11835
▁besuchte	-11836
▁breaking	-11837
▁elephant	-11838
▁faktoren	-11839
▁kampagne	-11840
▁shoulder	-11841
▁transmit	-11842
▁ursprung	-11843
▁zehntaus	-11844
▁ausmachen	-11845
▁begreifen	-11846
▁hoffnungs	-11847
▁molekular	-11848
▁programme	-11849
▁projekten	-11850
▁translate	-11851
▁brustkrebs	-11852
▁frankreich	-11853
▁incentives	-11854
▁ländlichen	-11855
▁mitglieder	-11856
▁irgendeinem	-11857
▁erinnerungen	-11858
▁verschiedener	-11859
▁veröffentlichen	-11860
lor	-11861
opy	-11862
xis	-11863
züg	-11864
äck	-11865
appt	-11866
atik	-11867
bart	-11868
illa	-11869
ktis	-11870
phas	-11871
rets	-11872
rich	-11873
▁cab	-11874
▁dez	-11875
▁hüb	-11876
▁jay	-11877
▁kuh	-11878
▁lex	-11879
ansas	-11880
ettet	-11881
gebäu	-11882
ioxid	-11883
peare	-11884
usive	-11885
uting	-11886
veled	-11887
▁abed	-11888
▁chop	-11889
▁doug	-11890
▁drum	-11891
▁foie	-11892
▁gast	-11893
▁gelb	-11894
▁nich	-11895
▁prev	-11896
▁scar	-11897
▁strö	-11898
▁sylv	-11899
▁unre	-11900
▁wozu	-11901
attung	-11902
ereien	-11903
hrough	-11904
ighted	-11905
▁angry	-11906
▁anruf	-11907
▁chron	-11908
▁eindr	-11909
▁elder	-11910
▁foods	-11911
▁gramm	-11912
▁hoher	-11913
▁könne	-11914
▁poliz	-11915
▁subur	-11916
▁wärme	-11917
▁agreed	-11918
▁beides	-11919
▁beseit	-11920
▁bundes	-11921
▁columb	-11922
▁frozen	-11923
▁legacy	-11924
▁legisl	-11925
▁liefer	-11926
▁lotter	-11927
▁machst	-11928
▁mainly	-11929
▁marken	-11930
▁neigen	-11931
▁smooth	-11932
▁vierte	-11933
▁wahlen	-11934
tausende	-11935
▁bizarre	-11936
▁density	-11937
▁entered	-11938
▁inspire	-11939
▁lecture	-11940
▁savings	-11941
▁schokol	-11942
▁sequenz	-11943
▁session	-11944
▁spinnen	-11945
▁wanting	-11946
▁befreien	-11947
▁epidemie	-11948
▁glaubten	-11949
▁interakt	-11950
▁kreative	-11951
▁particle	-11952
▁properly	-11953
▁verliert	-11954
▁verschle	-11955
▁wahrhaft	-11956
▁zeitraum	-11957
▁animation	-11958
▁bedeutete	-11959
▁berichtet	-11960
▁chemische	-11961
▁destroyed	-11962
▁expansion	-11963
▁parkinson	-11964
▁telephone	-11965
▁virtually	-11966
▁wiederher	-11967
▁afterwards	-11968
▁antwortete	-11969
▁vorsichtig	-11970
▁änderungen	-11971
▁analysieren	-11972
▁application	-11973
▁berücksicht	-11974
▁disappeared	-11975
▁beeindrucken	-11976
▁chinesischen	-11977
▁zurückkehren	-11978
▁interestingly	-11979
▁investitionen	-11980
bab	-11981
irk	-11982
opa	-11983
wan	-11984
▁0.	-11985
▁zä	-11986
andt	-11987
atts	-11988
etts	-11989
fare	-11990
fone	-11991
kord	-11992
lers	-11993
male	-11994
mers	-11995
spre	-11996
▁ara	-11997
▁dys	-11998
▁hmm	-11999
▁ibm	-12000
▁len	-12001
▁nag	-12002
angel	-12003
class	-12004
isely	-12005
itory	-12006
▁begr	-12007
▁brun	-12008
▁calc	-12009
▁dung	-12010
▁erad	-12011
▁ross	-12012
▁sher	-12013
▁spaz	-12014
▁stig	-12015
▁verz	-12016
ikaner	-12017
lernen	-12018
linien	-12019
schild	-12020
▁achse	-12021
▁beton	-12022
▁craig	-12023
▁datab	-12024
▁flick	-12025
▁guide	-12026
▁remix	-12027
▁risik	-12028
▁tasks	-12029
esented	-12030
gebiete	-12031
quality	-12032
zustand	-12033
▁20,000	-12034
▁adjust	-12035
▁arrang	-12036
▁assume	-12037
▁berlin	-12038
▁besitz	-12039
▁campus	-12040
▁extent	-12041
▁inklus	-12042
▁korean	-12043
▁lebend	-12044
▁liebte	-12045
▁offers	-12046
▁placed	-12047
▁poison	-12048
▁sylvia	-12049
▁tumors	-12050
▁vorhin	-12051
▁disgust	-12052
▁entschl	-12053
▁equally	-12054
▁granted	-12055
▁monster	-12056
▁montere	-12057
▁muscles	-12058
▁muslims	-12059
▁offered	-12060
▁pushing	-12061
▁träumen	-12062
▁anpassen	-12063
▁attached	-12064
▁aufrecht	-12065
▁drinking	-12066
▁recommen	-12067
▁schweine	-12068
▁verwende	-12069
▁ökonomen	-12070
▁architekt	-12071
▁corporate	-12072
▁expertise	-12073
▁mobiltele	-12074
▁plattform	-12075
▁precisely	-12076
▁britischen	-12077
▁exhibition	-12078
▁nationalen	-12079
▁zusammenzu	-12080
▁advertising	-12081
▁präsidenten	-12082
▁vergangenen	-12083
▁videospiele	-12084
▁ungewöhnlich	-12085
▁einrichtungen	-12086
▁vulnerability	-12087
▁identifizieren	-12088
▁weltbevölkerung	-12089
abs	-12090
ads	-12091
ato	-12092
cut	-12093
fäh	-12094
hum	-12095
ira	-12096
jet	-12097
kol	-12098
nor	-12099
▁38	-12100
▁dü	-12101
imet	-12102
ästh	-12103
▁ack	-12104
▁aim	-12105
▁ech	-12106
▁lak	-12107
0.000	-12108
acken	-12109
leute	-12110
umble	-12111
ässer	-12112
▁bier	-12113
▁boss	-12114
▁firm	-12115
▁guar	-12116
▁lese	-12117
▁ngos	-12118
▁rent	-12119
▁saal	-12120
▁spur	-12121
▁watt	-12122
anlage	-12123
geräte	-12124
heorie	-12125
spanne	-12126
utzend	-12127
▁aspir	-12128
▁brach	-12129
▁fixed	-12130
▁freie	-12131
▁harry	-12132
▁pferd	-12133
▁pione	-12134
▁pitch	-12135
▁saßen	-12136
brochen	-12137
gemacht	-12138
schauen	-12139
▁bildet	-12140
▁hardly	-12141
▁hawaii	-12142
▁keinem	-12143
▁muskel	-12144
▁palest	-12145
▁plenty	-12146
▁proben	-12147
▁shadow	-12148
▁stille	-12149
ensystem	-12150
▁appears	-12151
▁attacks	-12152
▁elegant	-12153
▁footage	-12154
▁gesunde	-12155
▁geteilt	-12156
▁kameras	-12157
▁liefert	-12158
▁overall	-12159
▁reflect	-12160
▁skelett	-12161
▁suspect	-12162
▁welcome	-12163
▁wurzeln	-12164
▁übersch	-12165
▁academic	-12166
▁ausnahme	-12167
▁erklärte	-12168
▁flexible	-12169
▁intensiv	-12170
▁organism	-12171
▁russland	-12172
▁shooting	-12173
▁backwards	-12174
▁orchestra	-12175
▁practices	-12176
▁presented	-12177
▁ungeheuer	-12178
▁verrückte	-12179
▁ausgegeben	-12180
▁earthquake	-12181
▁governance	-12182
▁nachhaltig	-12183
▁sichtweise	-12184
▁wheelchair	-12185
organisation	-12186
▁komponenten	-12187
▁konsumenten	-12188
▁photography	-12189
▁probability	-12190
▁shakespeare	-12191
▁entscheidend	-12192
▁katastrophen	-12193
▁transparency	-12194
▁kommunikations	-12195
bür	-12196
uft	-12197
agos	-12198
amen	-12199
baum	-12200
beln	-12201
fine	-12202
frei	-12203
last	-12204
▁caf	-12205
▁gän	-12206
▁jug	-12207
▁mri	-12208
▁vel	-12209
▁voy	-12210
abeth	-12211
ffend	-12212
fähig	-12213
inger	-12214
isses	-12215
istin	-12216
lager	-12217
ricul	-12218
▁1999	-12219
▁deck	-12220
▁glor	-12221
▁nets	-12222
▁pile	-12223
▁trat	-12224
bringt	-12225
igungs	-12226
iratet	-12227
straße	-12228
▁angle	-12229
▁award	-12230
▁bösen	-12231
▁chest	-12232
▁dense	-12233
▁dicht	-12234
▁indus	-12235
▁knock	-12236
▁lewis	-12237
▁lobby	-12238
▁purch	-12239
▁sales	-12240
▁schol	-12241
▁selbe	-12242
▁spons	-12243
▁spots	-12244
ließend	-12245
peratur	-12246
▁basket	-12247
▁befest	-12248
▁crowds	-12249
▁deinem	-12250
▁drehte	-12251
▁inject	-12252
▁limits	-12253
▁oberen	-12254
▁paläst	-12255
▁powers	-12256
▁refuge	-12257
▁sacred	-12258
▁sahara	-12259
▁schlug	-12260
▁sports	-12261
▁stirbt	-12262
▁thrown	-12263
▁analyse	-12264
▁büchern	-12265
▁dioxide	-12266
▁diverse	-12267
▁dunklen	-12268
▁erschre	-12269
▁flederm	-12270
▁robotic	-12271
▁section	-12272
▁tragedy	-12273
▁zweifel	-12274
▁appeared	-12275
▁aufstieg	-12276
▁autismus	-12277
▁bewirken	-12278
▁erwähnen	-12279
▁hinblick	-12280
▁maintain	-12281
▁monterey	-12282
▁provided	-12283
▁verkehrs	-12284
▁vorgehen	-12285
▁zugleich	-12286
▁übergang	-12287
▁breathing	-12288
▁emergency	-12289
▁prototype	-12290
▁symmetrie	-12291
▁weibliche	-12292
▁gemeinnütz	-12293
▁künstliche	-12294
▁controlling	-12295
▁flüssigkeit	-12296
▁katastrophe	-12297
▁oberflächen	-12298
▁verbesserung	-12299
▁globalisierung	-12300
eut	-12301
gur	-12302
ozi	-12303
▁98	-12304
▁cm	-12305
ffin	-12306
ilit	-12307
obal	-12308
rans	-12309
uous	-12310
züge	-12311
▁193	-12312
▁gur	-12313
▁leb	-12314
▁max	-12315
▁moz	-12316
▁wet	-12317
▁äth	-12318
asien	-12319
ignet	-12320
state	-12321
▁1994	-12322
▁1998	-12323
▁alan	-12324
▁bars	-12325
▁dean	-12326
▁dent	-12327
▁holl	-12328
▁koch	-12329
▁lock	-12330
▁pupp	-12331
▁quar	-12332
▁spar	-12333
▁stil	-12334
▁wund	-12335
acular	-12336
engine	-12337
esthes	-12338
lichem	-12339
market	-12340
würdig	-12341
▁beruh	-12342
▁circa	-12343
▁coach	-12344
▁disag	-12345
▁downt	-12346
▁hitze	-12347
▁medit	-12348
▁ruhig	-12349
▁sarah	-12350
▁scary	-12351
▁sixth	-12352
▁stair	-12353
▁szene	-12354
▁tries	-12355
▁units	-12356
▁utter	-12357
▁warte	-12358
▁wände	-12359
▁youth	-12360
quellen	-12361
quently	-12362
▁behave	-12363
▁fliegt	-12364
▁handys	-12365
▁kandid	-12366
▁keines	-12367
▁kognit	-12368
▁leiter	-12369
▁nahezu	-12370
▁nervös	-12371
▁oldest	-12372
▁promot	-12373
▁replac	-12374
▁sebast	-12375
▁soviet	-12376
▁sprung	-12377
▁wenden	-12378
▁äthiop	-12379
chnitten	-12380
▁anticip	-12381
▁bericht	-12382
▁dichter	-12383
▁distant	-12384
▁erfolgs	-12385
▁geraten	-12386
▁gewöhnt	-12387
▁initial	-12388
▁intrins	-12389
▁jeweils	-12390
▁kreiert	-12391
▁license	-12392
▁tauchen	-12393
▁vorauss	-12394
▁zerstör	-12395
▁aktuelle	-12396
▁begrenzt	-12397
▁contains	-12398
▁district	-12399
▁estimate	-12400
▁gerettet	-12401
▁gründete	-12402
▁portrait	-12403
▁provides	-12404
▁reaching	-12405
▁riesiges	-12406
▁errichten	-12407
▁gespräche	-12408
▁privilege	-12409
▁spreading	-12410
▁treibhaus	-12411
▁weltweite	-12412
▁wiederhol	-12413
ischerweise	-12414
▁entstehung	-12415
▁fascinated	-12416
▁funktionen	-12417
▁investiert	-12418
▁langweilig	-12419
▁consequence	-12420
▁eigentliche	-12421
▁entsprechen	-12422
▁organisiert	-12423
▁represented	-12424
▁sogenannten	-12425
▁zukünftigen	-12426
▁erkrankungen	-12427
▁geschichtener	-12428
▁globalization	-12429
üd	-12430
iny	-12431
iva	-12432
lag	-12433
oid	-12434
rid	-12435
city	-12436
iser	-12437
oben	-12438
ühle	-12439
▁bun	-12440
▁mes	-12441
▁rod	-12442
▁sty	-12443
▁tub	-12444
abrik	-12445
amine	-12446
größe	-12447
oster	-12448
while	-12449
▁biod	-12450
▁flog	-12451
▁fulf	-12452
▁füße	-12453
▁mega	-12454
▁sink	-12455
▁zwöl	-12456
andelt	-12457
▁abund	-12458
▁actor	-12459
▁cryst	-12460
▁exakt	-12461
▁fuels	-12462
▁jenen	-12463
▁logik	-12464
▁naked	-12465
▁nucle	-12466
▁patri	-12467
▁simon	-12468
▁tritt	-12469
▁verpf	-12470
▁zwanz	-12471
wachsen	-12472
▁adding	-12473
▁ausged	-12474
▁dichte	-12475
▁dinger	-12476
▁doppel	-12477
▁erzeug	-12478
▁geruch	-12479
▁intent	-12480
▁moskit	-12481
▁preise	-12482
▁senior	-12483
▁stable	-12484
▁teufel	-12485
▁wartet	-12486
▁wilson	-12487
volution	-12488
▁benutze	-12489
▁destroy	-12490
▁forests	-12491
▁fremden	-12492
▁handels	-12493
▁höheren	-12494
▁instant	-12495
▁january	-12496
▁klavier	-12497
▁lehrern	-12498
▁muskeln	-12499
▁quanten	-12500
▁stärken	-12501
▁synthes	-12502
▁ursache	-12503
▁anführer	-12504
▁ausgaben	-12505
▁brooklyn	-12506
▁curricul	-12507
▁fahrzeug	-12508
▁hindurch	-12509
▁imagined	-12510
▁memories	-12511
▁nachmitt	-12512
▁overcome	-12513
▁beitragen	-12514
▁calculate	-12515
▁customers	-12516
▁denkweise	-12517
▁infiziert	-12518
▁techniken	-12519
▁angesichts	-12520
▁capitalism	-12521
▁gewöhnlich	-12522
▁physischen	-12523
▁teilnehmen	-12524
▁willkommen	-12525
▁anwendungen	-12526
▁grandfather	-12527
▁kulturellen	-12528
▁nachhaltige	-12529
▁operationen	-12530
▁personality	-12531
▁spectacular	-12532
▁andererseits	-12533
ave	-12534
cus	-12535
rau	-12536
sph	-12537
vey	-12538
▁0,	-12539
▁42	-12540
ctus	-12541
film	-12542
irds	-12543
schu	-12544
städ	-12545
▁130	-12546
▁oel	-12547
▁tyr	-12548
aming	-12549
force	-12550
iolet	-12551
lesen	-12552
ohlen	-12553
räger	-12554
▁bord	-12555
▁cany	-12556
▁cott	-12557
▁häss	-12558
▁jail	-12559
▁june	-12560
▁matt	-12561
▁reis	-12562
▁sill	-12563
▁sund	-12564
▁ugly	-12565
▁urhe	-12566
chtern	-12567
gebung	-12568
global	-12569
▁absur	-12570
▁befür	-12571
▁cable	-12572
▁craft	-12573
▁gelie	-12574
▁haare	-12575
▁immig	-12576
▁lifes	-12577
▁opens	-12578
▁seats	-12579
▁skull	-12580
▁wirkt	-12581
▁yours	-12582
▁belast	-12583
▁conven	-12584
▁ehemal	-12585
▁empire	-12586
▁filmen	-12587
▁frucht	-12588
▁hearts	-12589
▁johnny	-12590
▁kredit	-12591
▁niveau	-12592
▁provin	-12593
▁signed	-12594
▁verlei	-12595
▁weapon	-12596
gelassen	-12597
geschäft	-12598
▁aspects	-12599
▁beliefs	-12600
▁dignity	-12601
▁dutzend	-12602
▁extract	-12603
▁großzüg	-12604
▁leather	-12605
▁multipl	-12606
▁neulich	-12607
▁suicide	-12608
▁vorgang	-12609
▁bedauern	-12610
▁darkness	-12611
▁dynamics	-12612
▁includes	-12613
▁jonathan	-12614
▁männchen	-12615
▁secondly	-12616
▁teleskop	-12617
▁alexander	-12618
▁bedürfnis	-12619
▁conflicts	-12620
▁denselben	-12621
▁describes	-12622
▁effizienz	-12623
▁elections	-12624
▁gesammelt	-12625
▁inklusive	-12626
▁physische	-12627
▁primitive	-12628
▁statistik	-12629
▁accessible	-12630
▁angemessen	-12631
▁apparently	-12632
▁historical	-12633
▁recognized	-12634
▁ridiculous	-12635
▁technische	-12636
▁wirklichen	-12637
▁demonstrate	-12638
▁erwartungen	-12639
▁installation	-12640
▁intelligente	-12641
▁photographer	-12642
tz	-12643
ado	-12644
agh	-12645
oen	-12646
oma	-12647
▁ss	-12648
gent	-12649
inte	-12650
reen	-12651
▁dns	-12652
▁ell	-12653
▁wip	-12654
▁äng	-12655
analy	-12656
embly	-12657
hoben	-12658
iente	-12659
orgen	-12660
samen	-12661
stern	-12662
viele	-12663
▁caps	-12664
▁carl	-12665
▁excl	-12666
▁gate	-12667
▁rick	-12668
▁ruhe	-12669
▁skal	-12670
▁sput	-12671
angene	-12672
annter	-12673
gungen	-12674
iessen	-12675
mensch	-12676
pflanz	-12677
▁anspr	-12678
▁arter	-12679
▁drove	-12680
▁ehren	-12681
▁flour	-12682
▁lehre	-12683
▁opera	-12684
▁revol	-12685
▁royal	-12686
▁saudi	-12687
▁stieg	-12688
▁upset	-12689
iveness	-12690
äuschen	-12691
▁50,000	-12692
▁alumin	-12693
▁benzin	-12694
▁buddha	-12695
▁colony	-12696
▁crying	-12697
▁landed	-12698
▁metern	-12699
▁motors	-12700
▁narrow	-12701
▁praxis	-12702
▁retire	-12703
▁ruanda	-12704
▁silent	-12705
▁tribes	-12706
aufgaben	-12707
icherung	-12708
ologisch	-12709
▁abandon	-12710
▁cheaper	-12711
▁diesmal	-12712
▁enormen	-12713
▁fischer	-12714
▁fließen	-12715
▁highway	-12716
▁kümmert	-12717
▁passing	-12718
▁pflanze	-12719
▁pyramid	-12720
▁raising	-12721
▁raketen	-12722
▁trigger	-12723
▁uniform	-12724
▁verscha	-12725
▁achieved	-12726
▁involves	-12727
▁mitglied	-12728
▁morality	-12729
▁symptome	-12730
▁tedtalks	-12731
▁theorien	-12732
▁umstände	-12733
geschlagen	-12734
▁biodivers	-12735
▁gezwungen	-12736
▁implement	-12737
▁searching	-12738
▁visuellen	-12739
▁weihnacht	-12740
▁boundaries	-12741
▁irrational	-12742
▁millimeter	-12743
▁offensicht	-12744
▁reparieren	-12745
▁volunteers	-12746
▁chimpanzees	-12747
▁diskutieren	-12748
▁electronics	-12749
▁fortunately	-12750
▁recognition	-12751
▁zurückgehen	-12752
▁entschlossen	-12753
▁irgendwelche	-12754
▁verschwindet	-12755
▁architectural	-12756
▁traditionelle	-12757
▁universitäten	-12758
bc	-12759
ey	-12760
now	-12761
sah	-12762
ubs	-12763
zur	-12764
▁bh	-12765
▁iq	-12766
akul	-12767
alys	-12768
appy	-12769
ason	-12770
fast	-12771
kete	-12772
lete	-12773
mole	-12774
oust	-12775
quis	-12776
sell	-12777
umps	-12778
äher	-12779
äufe	-12780
▁lit	-12781
▁meg	-12782
▁nap	-12783
▁näh	-12784
asste	-12785
firma	-12786
letzt	-12787
ureau	-12788
▁1930	-12789
▁bind	-12790
▁entz	-12791
▁gebä	-12792
▁leap	-12793
▁logo	-12794
▁lärm	-12795
▁puls	-12796
▁salt	-12797
▁seek	-12798
▁tags	-12799
▁vene	-12800
fische	-12801
inform	-12802
melzen	-12803
seiten	-12804
wirken	-12805
▁altes	-12806
▁apoll	-12807
▁conce	-12808
▁drill	-12809
▁enkel	-12810
▁finds	-12811
▁graus	-12812
▁legte	-12813
▁likes	-12814
▁neutr	-12815
▁pleas	-12816
▁relax	-12817
▁rüber	-12818
▁schad	-12819
▁sheet	-12820
▁tight	-12821
▁wohlt	-12822
forward	-12823
▁abends	-12824
▁arctic	-12825
▁ausein	-12826
▁cheese	-12827
▁curren	-12828
▁escape	-12829
▁excell	-12830
▁excuse	-12831
▁geduld	-12832
▁januar	-12833
▁neural	-12834
▁portug	-12835
▁regret	-12836
▁ticket	-12837
▁volcan	-12838
stellten	-12839
ständige	-12840
▁angehen	-12841
▁borders	-12842
▁constra	-12843
▁erfüllt	-12844
▁ersetzt	-12845
▁fiction	-12846
▁mammals	-12847
▁neutral	-12848
▁parties	-12849
▁portion	-12850
▁pretend	-12851
▁prosper	-12852
▁rechner	-12853
▁removed	-12854
▁schmutz	-12855
▁speaker	-12856
▁sputnik	-12857
▁ärmsten	-12858
▁ausgehen	-12859
▁eröffnet	-12860
▁facility	-12861
▁fantasie	-12862
▁früheren	-12863
▁gebieten	-12864
▁guarante	-12865
▁privaten	-12866
▁shopping	-12867
▁speakers	-12868
▁surfaces	-12869
▁textbook	-12870
▁traveled	-12871
▁accidents	-12872
▁benutzten	-12873
▁continues	-12874
▁elsewhere	-12875
▁gestartet	-12876
▁höhepunkt	-12877
▁internets	-12878
▁konflikte	-12879
▁musicians	-12880
▁asteroiden	-12881
▁collecting	-12882
▁contribute	-12883
▁explaining	-12884
▁integrated	-12885
▁proportion	-12886
▁psychopath	-12887
▁chemotherap	-12888
▁schlimmsten	-12889
▁transparenz	-12890
▁wiederholen	-12891
▁berechnungen	-12892
▁festgestellt	-12893
▁neuroscience	-12894
▁wohlbefinden	-12895
▁repräsentiert	-12896
wl	-12897
alu	-12898
▁fi	-12899
▁lk	-12900
alie	-12901
anor	-12902
aran	-12903
ißen	-12904
meid	-12905
olas	-12906
prin	-12907
uity	-12908
vier	-12909
zähl	-12910
üren	-12911
▁lev	-12912
▁naz	-12913
▁reh	-12914
▁upd	-12915
night	-12916
oenix	-12917
teles	-12918
using	-12919
ündet	-12920
▁2030	-12921
▁anfü	-12922
▁buff	-12923
▁cass	-12924
▁chim	-12925
▁cute	-12926
▁debt	-12927
▁frog	-12928
▁geck	-12929
▁kühl	-12930
▁refr	-12931
▁thun	-12932
▁urkn	-12933
▁vorn	-12934
achtet	-12935
ammeln	-12936
itudes	-12937
ordnet	-12938
reicht	-12939
steine	-12940
usalem	-12941
▁bonob	-12942
▁drawn	-12943
▁fears	-12944
▁figur	-12945
▁fluid	-12946
▁freud	-12947
▁realm	-12948
▁santa	-12949
▁spell	-12950
▁tribe	-12951
▁waffe	-12952
iminals	-12953
itungen	-12954
samkeit	-12955
tausend	-12956
▁auszud	-12957
▁borrow	-12958
▁degrad	-12959
▁domain	-12960
▁evolve	-12961
▁füllen	-12962
▁ignore	-12963
▁intrig	-12964
▁layers	-12965
▁legend	-12966
▁partei	-12967
▁recher	-12968
▁sektor	-12969
▁shaped	-12970
▁trucks	-12971
funktion	-12972
mögliche	-12973
▁amongst	-12974
▁brechen	-12975
▁consume	-12976
▁empfind	-12977
▁inhalte	-12978
▁receive	-12979
▁reduced	-12980
▁redwood	-12981
▁terrain	-12982
▁verließ	-12983
▁vermute	-12984
▁zweites	-12985
regierung	-12986
▁aircraft	-12987
▁anbieten	-12988
▁anderson	-12989
▁außerord	-12990
▁contract	-12991
▁engaging	-12992
▁ethiopia	-12993
▁führungs	-12994
▁gegessen	-12995
▁kleinere	-12996
▁kopieren	-12997
▁mcdonald	-12998
▁schickte	-12999
▁stations	-13000
▁vernünft	-13001
▁vertical	-13002
▁auftreten	-13003
▁colleague	-13004
▁contempor	-13005
▁dedicated	-13006
▁depressed	-13007
▁kommerzie	-13008
▁positiven	-13009
▁ecosystems	-13010
▁englischen	-13011
▁reaktionen	-13012
▁standpunkt	-13013
▁vermittelt	-13014
▁wiederholt	-13015
▁discoveries	-13016
▁ingredients	-13017
▁unterwasser	-13018
▁abhängigkeit	-13019
▁hinsichtlich	-13020
wissenschaften	-13021
▁erstaunlichen	-13022
▁faszinierende	-13023
▁gleichgewicht	-13024
▁wunderschönen	-13025
▁zufriedenheit	-13026
▁administration	-13027
▁ausschließlich	-13028
▁bemerkenswerte	-13029
wr	-13030
pox	-13031
▁dj	-13032
▁kg	-13033
▁ue	-13034
aben	-13035
alte	-13036
esse	-13037
gles	-13038
ktar	-13039
lies	-13040
oton	-13041
rand	-13042
▁dvd	-13043
▁jup	-13044
▁pav	-13045
▁pic	-13046
essel	-13047
grade	-13048
quent	-13049
▁bert	-13050
▁beur	-13051
▁bias	-13052
▁brie	-13053
▁cave	-13054
▁chat	-13055
▁gefe	-13056
▁hire	-13057
▁jord	-13058
▁kilo	-13059
▁konz	-13060
▁mahl	-13061
▁mate	-13062
▁milo	-13063
▁rely	-13064
▁shir	-13065
▁wise	-13066
gewebe	-13067
ghters	-13068
ptions	-13069
wander	-13070
▁advoc	-13071
▁chile	-13072
▁fruit	-13073
▁katze	-13074
▁konst	-13075
▁leber	-13076
▁meere	-13077
▁memes	-13078
▁miser	-13079
▁namib	-13080
▁perip	-13081
▁sorgf	-13082
▁strip	-13083
▁tempo	-13084
▁trash	-13085
▁wirft	-13086
▁zählt	-13087
aktoren	-13088
enhagen	-13089
wendung	-13090
▁achiev	-13091
▁anweis	-13092
▁assozi	-13093
▁barbar	-13094
▁chosen	-13095
▁distra	-13096
▁ebenen	-13097
▁echtes	-13098
▁emphas	-13099
▁fließt	-13100
▁futter	-13101
▁gesünd	-13102
▁gigant	-13103
▁jewish	-13104
▁klinik	-13105
▁nurses	-13106
▁singap	-13107
▁stores	-13108
▁vacuum	-13109
▁wüsten	-13110
children	-13111
▁academy	-13112
▁attract	-13113
▁beschäd	-13114
▁ehemann	-13115
▁emerged	-13116
▁ethanol	-13117
▁hanging	-13118
▁höchste	-13119
▁jupiter	-13120
▁kohlend	-13121
▁lernten	-13122
▁lichter	-13123
▁pulling	-13124
▁schwach	-13125
▁schwanz	-13126
▁traject	-13127
▁urheber	-13128
▁wodurch	-13129
▁würdest	-13130
aktivität	-13131
igerweise	-13132
▁assemble	-13133
▁ausgesch	-13134
▁bekannte	-13135
▁bescheid	-13136
▁cartoons	-13137
▁energien	-13138
▁extended	-13139
▁gesunden	-13140
▁hinweise	-13141
▁incident	-13142
▁keyboard	-13143
▁produces	-13144
▁reagiert	-13145
▁returned	-13146
▁smallpox	-13147
▁sozialer	-13148
▁abenteuer	-13149
▁austausch	-13150
▁committed	-13151
▁irgendwas	-13152
▁nachdenkt	-13153
▁sebastian	-13154
▁separated	-13155
▁affordable	-13156
▁connectome	-13157
▁dramatisch	-13158
▁herangehen	-13159
▁researcher	-13160
▁resilience	-13161
▁selbstmord	-13162
▁versorgung	-13163
▁zusammenge	-13164
▁angetrieben	-13165
▁cooperation	-13166
▁einzigartig	-13167
▁improvement	-13168
▁kombinieren	-13169
▁profitieren	-13170
▁terrorismus	-13171
▁schreckliche	-13172
▁entscheidende	-13173
▁communications	-13174
▁nahrungsmittel	-13175
abe	-13176
aby	-13177
pop	-13178
rah	-13179
wel	-13180
ärt	-13181
▁ny	-13182
▁rh	-13183
▁wk	-13184
apor	-13185
aser	-13186
enth	-13187
itar	-13188
kurs	-13189
phan	-13190
stat	-13191
utan	-13192
ödie	-13193
▁12-	-13194
▁15-	-13195
▁fid	-13196
▁kin	-13197
▁tän	-13198
▁töd	-13199
allow	-13200
banon	-13201
ignen	-13202
ikely	-13203
leger	-13204
ndrom	-13205
▁2012	-13206
▁acid	-13207
▁alas	-13208
▁cham	-13209
▁cord	-13210
▁dump	-13211
▁gefl	-13212
▁jenn	-13213
▁junk	-13214
▁kost	-13215
▁neoc	-13216
▁sexy	-13217
▁sier	-13218
▁trad	-13219
▁triv	-13220
▁ware	-13221
mungen	-13222
utical	-13223
▁5.000	-13224
▁banjo	-13225
▁cliff	-13226
▁derer	-13227
▁gered	-13228
▁kugel	-13229
▁meint	-13230
▁nerve	-13231
▁numer	-13232
▁proof	-13233
▁proph	-13234
▁rover	-13235
▁thail	-13236
▁tibet	-13237
▁vorzu	-13238
fleisch	-13239
gencies	-13240
konstru	-13241
▁20.000	-13242
▁ballon	-13243
▁capita	-13244
▁hybrid	-13245
▁invite	-13246
▁julian	-13247
▁kalten	-13248
▁locked	-13249
▁ratten	-13250
▁repeat	-13251
▁rescue	-13252
▁reserv	-13253
▁rhythm	-13254
▁schall	-13255
▁wahren	-13256
▁werten	-13257
gefallen	-13258
▁atlanta	-13259
▁beijing	-13260
▁briefly	-13261
▁lawyers	-13262
▁pazifik	-13263
▁phoenix	-13264
▁referen	-13265
▁richten	-13266
▁vertrau	-13267
katastrop	-13268
▁artistic	-13269
▁bewahren	-13270
▁conclude	-13271
▁controls	-13272
▁dominant	-13273
▁external	-13274
▁figuring	-13275
▁focusing	-13276
▁gebäudes	-13277
▁globally	-13278
▁konzepte	-13279
▁openness	-13280
▁policies	-13281
▁relation	-13282
▁schlagze	-13283
▁stiftung	-13284
▁therapie	-13285
▁unlikely	-13286
▁vorträge	-13287
▁änderung	-13288
▁chirurgen	-13289
▁erwärmung	-13290
▁excellent	-13291
▁flugzeuge	-13292
▁generated	-13293
▁intuitive	-13294
▁terrorism	-13295
▁wiederauf	-13296
▁abendessen	-13297
▁ausdrücken	-13298
▁aussterben	-13299
▁bangladesh	-13300
▁determined	-13301
▁einkommens	-13302
▁functional	-13303
▁konvention	-13304
▁resolution	-13305
▁underlying	-13306
▁verbraucht	-13307
▁association	-13308
▁frustration	-13309
▁predictions	-13310
▁underground	-13311
▁verbrauchen	-13312
▁versprechen	-13313
▁agricultural	-13314
organisationen	-13315
▁durcheinander	-13316
ee	-13317
rö	-13318
ctu	-13319
ovo	-13320
▁34	-13321
▁ig	-13322
▁zy	-13323
airs	-13324
cycl	-13325
imme	-13326
itis	-13327
mass	-13328
quem	-13329
walk	-13330
▁blö	-13331
▁eve	-13332
▁jar	-13333
▁kim	-13334
▁une	-13335
▁vin	-13336
abled	-13337
achse	-13338
dauer	-13339
liste	-13340
reize	-13341
ühren	-13342
▁adap	-13343
▁drew	-13344
▁pace	-13345
▁seil	-13346
▁tong	-13347
▁tote	-13348
▁whis	-13349
ateful	-13350
decken	-13351
lement	-13352
mitten	-13353
▁aesth	-13354
▁begrü	-13355
▁behör	-13356
▁bruce	-13357
▁dient	-13358
▁flach	-13359
▁harte	-13360
▁haust	-13361
▁outer	-13362
▁seeds	-13363
▁stunt	-13364
▁susan	-13365
▁talen	-13366
▁tired	-13367
▁trage	-13368
ologien	-13369
politik	-13370
stunden	-13371
▁abgest	-13372
▁acknow	-13373
▁bomben	-13374
▁breakt	-13375
▁emerge	-13376
▁inches	-13377
▁inseln	-13378
▁instin	-13379
▁kuchen	-13380
▁philip	-13381
▁rarely	-13382
▁shrimp	-13383
▁simult	-13384
▁subtle	-13385
▁tränen	-13386
▁twenty	-13387
▁werdet	-13388
gleichen	-13389
handlung	-13390
▁anfängt	-13391
▁anwesen	-13392
▁bedeckt	-13393
▁clients	-13394
▁efforts	-13395
▁garbage	-13396
▁greifen	-13397
▁kinderg	-13398
▁koordin	-13399
▁reports	-13400
▁sensory	-13401
▁ausmacht	-13402
▁betriebs	-13403
▁fabulous	-13404
▁gebildet	-13405
▁geworfen	-13406
▁hingehen	-13407
▁pathogen	-13408
▁repeated	-13409
▁schließt	-13410
▁schnelle	-13411
▁spannend	-13412
▁verlangt	-13413
▁announced	-13414
▁bedeutend	-13415
▁bewegungs	-13416
▁gleichung	-13417
▁intensive	-13418
▁jerusalem	-13419
▁politisch	-13420
▁portraits	-13421
▁schrieben	-13422
▁strangers	-13423
▁tedglobal	-13424
▁teenagers	-13425
▁täuschung	-13426
▁unterhalb	-13427
▁vorkommen	-13428
▁zeitungen	-13429
▁ignorieren	-13430
▁meditation	-13431
▁powerpoint	-13432
▁regelmäßig	-13433
▁schwestern	-13434
▁strategies	-13435
▁treatments	-13436
▁aufeinander	-13437
▁ausgebildet	-13438
▁blickwinkel	-13439
▁observation	-13440
▁unterhalten	-13441
▁afrikanische	-13442
▁breakthrough	-13443
▁universities	-13444
▁zurückkommen	-13445
▁überwältigen	-13446
ux	-13447
cas	-13448
law	-13449
äub	-13450
▁cd	-13451
ague	-13452
bene	-13453
iess	-13454
park	-13455
rein	-13456
very	-13457
▁ceo	-13458
▁fda	-13459
▁fib	-13460
▁mud	-13461
▁orb	-13462
berry	-13463
cular	-13464
eland	-13465
estet	-13466
hafen	-13467
liest	-13468
lässt	-13469
ppich	-13470
sense	-13471
zieht	-13472
ächer	-13473
▁bach	-13474
▁bats	-13475
▁dawn	-13476
▁fakt	-13477
▁gefr	-13478
▁gepr	-13479
▁himm	-13480
▁hunt	-13481
▁indo	-13482
▁juni	-13483
▁nurt	-13484
▁pein	-13485
▁tied	-13486
erster	-13487
viewer	-13488
▁4,000	-13489
▁alice	-13490
▁allzu	-13491
▁evalu	-13492
▁geöff	-13493
▁holds	-13494
▁lagen	-13495
▁males	-13496
▁wasch	-13497
bleiben	-13498
century	-13499
gebäude	-13500
▁bureau	-13501
▁disney	-13502
▁fertil	-13503
▁foster	-13504
▁fremde	-13505
▁injury	-13506
▁köpfen	-13507
▁mentor	-13508
▁native	-13509
▁obdach	-13510
▁sprich	-13511
▁stämme	-13512
▁worker	-13513
esthesia	-13514
sprogram	-13515
verstand	-13516
▁comprom	-13517
▁coordin	-13518
▁disappo	-13519
▁ethical	-13520
▁exposed	-13521
▁gefüllt	-13522
▁glühbir	-13523
▁richter	-13524
▁rosling	-13525
▁seattle	-13526
▁shelter	-13527
▁spitzen	-13528
▁weltall	-13529
▁wohltät	-13530
aceutical	-13531
▁amerikas	-13532
▁außerird	-13533
▁befassen	-13534
▁biologen	-13535
▁downtown	-13536
▁einziges	-13537
▁erkunden	-13538
▁erledigt	-13539
▁inmitten	-13540
▁optimism	-13541
▁organize	-13542
▁robotics	-13543
▁schülern	-13544
▁sinnvoll	-13545
▁weltbank	-13546
▁wieviele	-13547
▁überlebt	-13548
temperatur	-13549
unterricht	-13550
▁ansichten	-13551
▁classical	-13552
▁daughters	-13553
▁erinnerte	-13554
▁frequency	-13555
▁nutrition	-13556
▁strahlung	-13557
▁verpflich	-13558
▁verteilen	-13559
▁westliche	-13560
▁ähnlichen	-13561
▁allgemeine	-13562
▁auswirkung	-13563
▁elektronen	-13564
▁originally	-13565
▁protecting	-13566
▁traditions	-13567
▁unsichtbar	-13568
▁verteilung	-13569
▁integration	-13570
▁interacting	-13571
▁stimulation	-13572
▁vorgestellt	-13573
▁instructions	-13574
▁interactions	-13575
▁komplizierte	-13576
▁photographed	-13577
▁surprisingly	-13578
▁institutional	-13579
ersterblichkeit	-13580
▁einschließlich	-13581
▁menschlichkeit	-13582
hah	-13583
isy	-13584
käm	-13585
obs	-13586
pie	-13587
uba	-13588
▁43	-13589
ackt	-13590
asha	-13591
char	-13592
eday	-13593
haut	-13594
ibri	-13595
itas	-13596
opus	-13597
strö	-13598
team	-13599
viol	-13600
▁blü	-13601
▁kok	-13602
▁öst	-13603
aders	-13604
anned	-13605
copes	-13606
formt	-13607
isted	-13608
kamer	-13609
keley	-13610
llung	-13611
rates	-13612
reise	-13613
stock	-13614
ältig	-13615
▁2015	-13616
▁cock	-13617
▁damn	-13618
▁devo	-13619
▁dikt	-13620
▁euer	-13621
▁nair	-13622
▁neat	-13623
▁rail	-13624
▁tang	-13625
▁trom	-13626
▁tuna	-13627
▁ästh	-13628
▁üben	-13629
burger	-13630
fahrer	-13631
folger	-13632
ighter	-13633
ndrome	-13634
schiff	-13635
▁ambig	-13636
▁arrow	-13637
▁blase	-13638
▁bucks	-13639
▁burst	-13640
▁füßen	-13641
▁gonna	-13642
▁label	-13643
▁nurse	-13644
▁parli	-13645
▁peers	-13646
▁raten	-13647
▁summe	-13648
▁zwölf	-13649
▁übers	-13650
astroph	-13651
geladen	-13652
hundert	-13653
ichtung	-13654
klichen	-13655
▁actors	-13656
▁barely	-13657
▁bestra	-13658
▁breaks	-13659
▁butter	-13660
▁erfand	-13661
▁ethnic	-13662
▁gesche	-13663
▁gipfel	-13664
▁hungry	-13665
▁kosovo	-13666
▁lawyer	-13667
▁richer	-13668
▁sierra	-13669
▁silver	-13670
▁spinal	-13671
▁subway	-13672
▁tolles	-13673
▁verlor	-13674
▁victor	-13675
gegangen	-13676
▁angebot	-13677
▁auftrag	-13678
▁beitrag	-13679
▁beträgt	-13680
▁blutgef	-13681
▁cholera	-13682
▁circles	-13683
▁citizen	-13684
▁flasche	-13685
▁imaging	-13686
▁klingen	-13687
▁methods	-13688
▁prepare	-13689
▁publish	-13690
▁radikal	-13691
▁scanner	-13692
▁setzten	-13693
▁someday	-13694
▁trennen	-13695
▁vitamin	-13696
▁attitude	-13697
▁berkeley	-13698
▁betreten	-13699
▁climbing	-13700
▁crossing	-13701
▁domestic	-13702
▁draussen	-13703
▁hervorra	-13704
▁marathon	-13705
▁nochmals	-13706
▁reminded	-13707
▁schwerer	-13708
▁sleeping	-13709
▁toilette	-13710
▁verdammt	-13711
▁zentrale	-13712
▁eingebaut	-13713
▁gathering	-13714
▁gentleman	-13715
▁insurance	-13716
▁jefferson	-13717
▁neugierig	-13718
▁probieren	-13719
▁ausrüstung	-13720
▁commission	-13721
▁curriculum	-13722
▁optimismus	-13723
▁prototypen	-13724
▁schlimmste	-13725
▁weihnachts	-13726
▁zukünftige	-13727
▁überprüfen	-13728
▁schwerkraft	-13729
▁widerstands	-13730
▁zusätzliche	-13731
▁auszudrücken	-13732
▁contemporary	-13733
▁bürgermeister	-13734
▁entschuldigung	-13735
▁lebensqualität	-13736
üm	-13737
fan	-13738
hop	-13739
lon	-13740
wed	-13741
zne	-13742
öne	-13743
üre	-13744
alay	-13745
aubt	-13746
etik	-13747
fold	-13748
inas	-13749
sely	-13750
stoß	-13751
unen	-13752
▁ash	-13753
▁brä	-13754
▁jüd	-13755
▁osc	-13756
▁pit	-13757
▁ubi	-13758
arium	-13759
ckend	-13760
exper	-13761
flies	-13762
kohol	-13763
ocide	-13764
ouver	-13765
raben	-13766
▁airb	-13767
▁cere	-13768
▁coke	-13769
▁ebay	-13770
▁extr	-13771
▁hydr	-13772
▁laid	-13773
▁lith	-13774
▁lord	-13775
▁mice	-13776
▁moma	-13777
▁myst	-13778
▁rats	-13779
▁sacr	-13780
▁scot	-13781
▁wats	-13782
ativer	-13783
cepted	-13784
effekt	-13785
gested	-13786
orenen	-13787
summen	-13788
ulated	-13789
wellen	-13790
▁crops	-13791
▁einbe	-13792
▁flood	-13793
▁flows	-13794
▁index	-13795
▁knopf	-13796
▁käfer	-13797
▁liebt	-13798
▁lingu	-13799
▁louis	-13800
▁maker	-13801
▁onkel	-13802
▁orgas	-13803
▁punch	-13804
▁recyc	-13805
▁sauce	-13806
▁tesla	-13807
▁views	-13808
▁öfter	-13809
▁übung	-13810
strateg	-13811
▁alltag	-13812
▁asthma	-13813
▁buried	-13814
▁bäumen	-13815
▁danken	-13816
▁distur	-13817
▁elegan	-13818
▁graben	-13819
▁harmon	-13820
▁marsch	-13821
▁mining	-13822
▁stages	-13823
▁treibt	-13824
▁varian	-13825
▁weinen	-13826
▁überfl	-13827
erkennen	-13828
sproblem	-13829
▁alkohol	-13830
▁brennen	-13831
▁consult	-13832
▁dolphin	-13833
▁dynamik	-13834
▁entwurf	-13835
▁erkrank	-13836
▁essence	-13837
▁failing	-13838
▁geburts	-13839
▁gelangt	-13840
▁himalay	-13841
▁hormone	-13842
▁hunting	-13843
▁indiens	-13844
▁miracle	-13845
▁museums	-13846
▁painted	-13847
▁picking	-13848
▁premier	-13849
▁promote	-13850
▁reminds	-13851
▁stammen	-13852
▁symbols	-13853
▁wolfram	-13854
▁zuletzt	-13855
ikationen	-13856
zeichnung	-13857
▁articles	-13858
▁benutzte	-13859
▁captured	-13860
▁criminal	-13861
▁getestet	-13862
▁jährlich	-13863
▁mutation	-13864
▁objekten	-13865
▁schießen	-13866
▁thailand	-13867
▁vermögen	-13868
▁wünschen	-13869
▁aktuellen	-13870
▁astronaut	-13871
▁dependent	-13872
▁erfordert	-13873
▁erledigen	-13874
▁erziehung	-13875
▁geschützt	-13876
▁isolation	-13877
▁predicted	-13878
▁reconstru	-13879
▁rollstuhl	-13880
▁übersetzt	-13881
▁mainstream	-13882
▁parliament	-13883
▁propaganda	-13884
▁suggesting	-13885
▁verhindert	-13886
▁terroristen	-13887
▁einzigartige	-13888
▁fotografiert	-13889
▁kohlendioxid	-13890
▁unternehmens	-13891
▁wundervollen	-13892
▁beeindruckend	-13893
▁ursprüngliche	-13894
▁pharmaceutical	-13895
▁characteristics	-13896
aj	-13897
bow	-13898
kil	-13899
zel	-13900
▁44	-13901
,500	-13902
anna	-13903
belt	-13904
cola	-13905
igan	-13906
isph	-13907
onto	-13908
oted	-13909
otyp	-13910
path	-13911
rick	-13912
stad	-13913
stil	-13914
ähmt	-13915
ührt	-13916
▁450	-13917
▁dub	-13918
▁egg	-13919
▁fet	-13920
▁lap	-13921
▁nad	-13922
chtig	-13923
gänge	-13924
iance	-13925
ielle	-13926
pften	-13927
ränkt	-13928
spers	-13929
wohnt	-13930
▁aims	-13931
▁apps	-13932
▁bowl	-13933
▁cats	-13934
▁chor	-13935
▁fels	-13936
▁fuss	-13937
▁glac	-13938
▁hors	-13939
▁inne	-13940
▁lamp	-13941
▁leer	-13942
▁leit	-13943
▁soup	-13944
breite	-13945
planes	-13946
soever	-13947
uelles	-13948
vested	-13949
ändler	-13950
▁abuse	-13951
▁anzug	-13952
▁array	-13953
▁begun	-13954
▁decke	-13955
▁edges	-13956
▁empfe	-13957
▁endet	-13958
▁erhöh	-13959
▁getre	-13960
▁italy	-13961
▁kanal	-13962
▁kapaz	-13963
▁kelly	-13964
▁kills	-13965
▁krist	-13966
▁mathe	-13967
▁mayor	-13968
▁pitts	-13969
▁silly	-13970
▁stets	-13971
▁stich	-13972
▁storm	-13973
▁uncle	-13974
▁väter	-13975
▁werbe	-13976
▁winds	-13977
auschen	-13978
legenen	-13979
▁50.000	-13980
▁apollo	-13981
▁arrive	-13982
▁attend	-13983
▁decent	-13984
▁encycl	-13985
▁fahrer	-13986
▁funded	-13987
▁halben	-13988
▁harbor	-13989
▁höhlen	-13990
▁indire	-13991
▁mannes	-13992
▁missed	-13993
▁mochte	-13994
▁pursue	-13995
▁pushed	-13996
▁steine	-13997
▁unfair	-13998
▁verzer	-13999
changing	-14000
▁adopted	-14001
▁analyze	-14002
▁atember	-14003
▁befried	-14004
▁hawking	-14005
▁hemisph	-14006
▁hinweis	-14007
▁indigen	-14008
▁landete	-14009
▁montana	-14010
▁rehabil	-14011
▁revenue	-14012
▁schreib	-14013
▁schädel	-14014
▁sensors	-14015
▁sisters	-14016
▁visited	-14017
▁winning	-14018
▁writers	-14019
▁änderte	-14020
▁benutzer	-14021
▁educated	-14022
▁einblick	-14023
▁geöffnet	-14024
▁prozesse	-14025
▁reducing	-14026
▁reported	-14027
▁speicher	-14028
▁streiten	-14029
▁syndrome	-14030
▁versions	-14031
ordination	-14032
▁angepasst	-14033
▁expanding	-14034
▁flughafen	-14035
▁forgotten	-14036
▁fortunate	-14037
▁jellyfish	-14038
▁kreislauf	-14039
▁schwarzes	-14040
▁auffassung	-14041
▁biologists	-14042
▁correspond	-14043
▁dictionary	-14044
▁impression	-14045
▁klassische	-14046
▁organismus	-14047
▁virtuellen	-14048
▁whatsoever	-14049
▁anzuschauen	-14050
▁erfindungen	-14051
▁finanzieren	-14052
▁irgendeiner	-14053
▁krankenschw	-14054
▁mittelpunkt	-14055
▁uncertainty	-14056
▁atemberauben	-14057
▁bewusstseins	-14058
▁expectations	-14059
▁occasionally	-14060
▁sonnensystem	-14061
▁produktivität	-14062
▁sicherstellen	-14063
0-	-14064
mär	-14065
wol	-14066
zum	-14067
▁dy	-14068
iath	-14069
klar	-14070
neur	-14071
phys	-14072
weiß	-14073
▁aur	-14074
▁enh	-14075
▁gor	-14076
▁mcc	-14077
▁unh	-14078
figur	-14079
osaur	-14080
owing	-14081
ummer	-14082
▁1995	-14083
▁anth	-14084
▁euro	-14085
▁krab	-14086
▁papa	-14087
▁pigs	-14088
▁slum	-14089
▁tesz	-14090
▁turk	-14091
▁ultr	-14092
▁wach	-14093
eltern	-14094
ingung	-14095
odynam	-14096
ogramm	-14097
spunkt	-14098
äuscht	-14099
ündung	-14100
▁arzne	-14101
▁engag	-14102
▁etabl	-14103
▁expos	-14104
▁helic	-14105
▁kauft	-14106
▁reale	-14107
▁spagh	-14108
▁stops	-14109
▁tears	-14110
▁verwe	-14111
▁werke	-14112
▁zuhör	-14113
▁beinen	-14114
▁branch	-14115
▁caring	-14116
▁derart	-14117
▁dozens	-14118
▁fuhren	-14119
▁genere	-14120
▁hacker	-14121
▁horror	-14122
▁imagin	-14123
▁insect	-14124
▁lenken	-14125
▁pocken	-14126
▁poesie	-14127
▁recess	-14128
▁render	-14129
▁retina	-14130
▁scales	-14131
▁scores	-14132
▁tracks	-14133
▁umfang	-14134
▁wohnen	-14135
▁anreize	-14136
▁beginne	-14137
▁dreimal	-14138
▁forming	-14139
▁founded	-14140
▁goliath	-14141
▁graphic	-14142
▁horizon	-14143
▁kleider	-14144
▁october	-14145
▁profile	-14146
▁schöner	-14147
▁slavery	-14148
▁vereinf	-14149
aufnahmen	-14150
▁behaupte	-14151
▁confront	-14152
▁dopamine	-14153
▁erlangen	-14154
▁erschien	-14155
▁fraction	-14156
▁handlung	-14157
▁hineinge	-14158
▁mushroom	-14159
▁perceive	-14160
▁skeleton	-14161
▁surgeons	-14162
▁theories	-14163
▁verletzt	-14164
▁vortrags	-14165
▁begriffen	-14166
▁diagnosed	-14167
▁fahrzeuge	-14168
▁geblieben	-14169
▁neanderth	-14170
▁paralyzed	-14171
▁qualities	-14172
▁substance	-14173
▁angeschaut	-14174
▁automobile	-14175
▁expectancy	-14176
▁finanziert	-14177
▁handlungen	-14178
▁religiösen	-14179
▁struggling	-14180
▁trainieren	-14181
▁treibstoff	-14182
▁vertrauens	-14183
gemeinschaft	-14184
▁computation	-14185
▁großartiger	-14186
▁investition	-14187
▁kooperation	-14188
▁mittagessen	-14189
▁schwierigen	-14190
▁beschreibung	-14191
▁europäischen	-14192
▁experimental	-14193
▁successfully	-14194
▁collaborative	-14195
▁durchzuführen	-14196
wissenschaftler	-14197
sm	-14198
agn	-14199
gon	-14200
gue	-14201
iac	-14202
low	-14203
urr	-14204
eins	-14205
ftet	-14206
herz	-14207
isha	-14208
kter	-14209
quar	-14210
ship	-14211
älle	-14212
▁lud	-14213
▁unn	-14214
▁weh	-14215
agger	-14216
block	-14217
going	-14218
ipend	-14219
ortex	-14220
▁bart	-14221
▁brad	-14222
▁eliz	-14223
▁glet	-14224
▁guns	-14225
▁jill	-14226
▁labs	-14227
▁löst	-14228
▁mais	-14229
▁nike	-14230
▁sits	-14231
achung	-14232
kasten	-14233
minute	-14234
zenten	-14235
▁banks	-14236
▁carne	-14237
▁delph	-14238
▁favel	-14239
▁filmm	-14240
▁frühl	-14241
▁genen	-14242
▁georg	-14243
▁gorge	-14244
▁herbe	-14245
▁köpfe	-14246
▁liest	-14247
▁linke	-14248
▁loves	-14249
▁möbel	-14250
▁owner	-14251
▁plain	-14252
▁redet	-14253
▁resol	-14254
▁shirt	-14255
▁threw	-14256
▁tooth	-14257
▁ushah	-14258
▁wette	-14259
▁ärger	-14260
zentren	-14261
▁absurd	-14262
▁argent	-14263
▁drüber	-14264
▁editor	-14265
▁ending	-14266
▁erfuhr	-14267
▁genial	-14268
▁multin	-14269
▁partly	-14270
▁served	-14271
▁stroke	-14272
▁tattoo	-14273
▁turkey	-14274
▁unheim	-14275
▁venezu	-14276
▁vertik	-14277
▁vertre	-14278
▁waters	-14279
▁watson	-14280
▁wälder	-14281
▁wütend	-14282
anischen	-14283
gekommen	-14284
▁advance	-14285
▁affects	-14286
▁cousins	-14287
▁fragile	-14288
▁fußball	-14289
▁gallery	-14290
▁geredet	-14291
▁imagery	-14292
▁komprom	-14293
▁mapping	-14294
▁oktober	-14295
▁passive	-14296
▁pointed	-14297
▁punkten	-14298
▁rechnen	-14299
▁smarter	-14300
▁wertsch	-14301
▁winzige	-14302
schreiten	-14303
▁accepted	-14304
▁adoption	-14305
▁agencies	-14306
▁berühmte	-14307
▁empathie	-14308
▁grateful	-14309
▁homeless	-14310
▁innocent	-14311
▁insights	-14312
▁leverage	-14313
▁neuesten	-14314
▁prostate	-14315
▁soziales	-14316
▁sprecher	-14317
▁tragödie	-14318
▁verliebt	-14319
▁zukunfts	-14320
revolution	-14321
▁ausführen	-14322
▁definitiv	-14323
▁delivered	-14324
▁detection	-14325
▁funktions	-14326
▁gestaltet	-14327
▁glamorous	-14328
▁highlight	-14329
▁hilfreich	-14330
▁nachfrage	-14331
▁offenheit	-14332
▁orchester	-14333
▁realizing	-14334
▁religiöse	-14335
▁wiederver	-14336
▁aufregende	-14337
▁auftauchen	-14338
▁ausgewählt	-14339
▁bandbreite	-14340
▁capability	-14341
▁elektronik	-14342
▁elementary	-14343
▁entdeckten	-14344
▁gegenstand	-14345
▁hypothesis	-14346
▁inevitable	-14347
▁involviert	-14348
▁lebensraum	-14349
▁lächerlich	-14350
▁trajectory	-14351
▁verbrennen	-14352
▁verwandten	-14353
▁abschließen	-14354
▁hilfsmittel	-14355
▁stattfinden	-14356
▁angestellten	-14357
▁auseinanders	-14358
▁optimistisch	-14359
▁präsentieren	-14360
▁weitermachen	-14361
issenschaftler	-14362
▁abgeschlossen	-14363
▁multinational	-14364
▁unterscheidet	-14365
-2	-14366
fam	-14367
pap	-14368
rey	-14369
äut	-14370
öss	-14371
▁4.	-14372
▁cn	-14373
▁ei	-14374
gert	-14375
hold	-14376
keep	-14377
▁180	-14378
▁2.0	-14379
▁dil	-14380
▁hay	-14381
▁sab	-14382
▁via	-14383
▁äqu	-14384
auert	-14385
bogen	-14386
ordon	-14387
rence	-14388
robot	-14389
rückt	-14390
union	-14391
▁beck	-14392
▁bend	-14393
▁butt	-14394
▁cake	-14395
▁dive	-14396
▁harn	-14397
▁klat	-14398
▁leaf	-14399
▁maße	-14400
▁neil	-14401
▁pear	-14402
▁sank	-14403
▁shor	-14404
▁stau	-14405
ashing	-14406
genden	-14407
handel	-14408
iegeln	-14409
istenz	-14410
mengen	-14411
othing	-14412
waffen	-14413
▁bears	-14414
▁bruch	-14415
▁codes	-14416
▁coole	-14417
▁devil	-14418
▁dirig	-14419
▁erfre	-14420
▁exter	-14421
▁fremd	-14422
▁illeg	-14423
▁jihad	-14424
▁motto	-14425
▁sharp	-14426
▁stake	-14427
▁wollt	-14428
staaten	-14429
▁accent	-14430
▁aliens	-14431
▁buches	-14432
▁burden	-14433
▁canopy	-14434
▁canyon	-14435
▁cotton	-14436
▁festge	-14437
▁headed	-14438
▁makers	-14439
▁narrat	-14440
▁negoti	-14441
▁panels	-14442
▁recept	-14443
▁reflex	-14444
▁reiste	-14445
▁schief	-14446
▁seiden	-14447
▁spuren	-14448
▁verkle	-14449
▁ängste	-14450
bereiten	-14451
▁annäher	-14452
▁babbage	-14453
▁bedroht	-14454
▁erfasst	-14455
▁gewinnt	-14456
▁hitting	-14457
▁kontinu	-14458
▁methane	-14459
▁passage	-14460
▁pockets	-14461
▁puzzles	-14462
▁unerwar	-14463
▁zeitgen	-14464
wirkungen	-14465
▁bewohner	-14466
▁biotechn	-14467
▁columbia	-14468
▁currency	-14469
▁erzielen	-14470
▁freizeit	-14471
▁genetics	-14472
▁graphics	-14473
▁herkunft	-14474
▁homework	-14475
▁indische	-14476
▁institut	-14477
▁measures	-14478
▁proposed	-14479
▁schienen	-14480
▁schlicht	-14481
▁sciences	-14482
▁sicherer	-14483
▁unangene	-14484
▁verfügen	-14485
▁vielzahl	-14486
▁wildlife	-14487
▁airplanes	-14488
▁anonymous	-14489
▁confident	-14490
▁disziplin	-14491
▁erhielten	-14492
▁fortgesch	-14493
▁impfstoff	-14494
▁initially	-14495
▁leistungs	-14496
▁perfekten	-14497
▁recommend	-14498
▁replicate	-14499
▁schichten	-14500
▁spektakul	-14501
▁technisch	-14502
▁vereinten	-14503
bedingungen	-14504
▁identified	-14505
▁mechanisms	-14506
▁permission	-14507
▁phosphorus	-14508
▁zentimeter	-14509
▁überqueren	-14510
▁anerkennung	-14511
▁description	-14512
▁durchmesser	-14513
▁erforschung	-14514
▁exponential	-14515
▁interviewer	-14516
▁stattfindet	-14517
▁verarbeiten	-14518
▁kapitalismus	-14519
▁kindergarten	-14520
▁unbelievable	-14521
▁grandchildren	-14522
▁eingeschlossen	-14523
▁verletzlichkeit	-14524
qa	-14525
kei	-14526
▁si	-14527
ador	-14528
aken	-14529
alia	-14530
bole	-14531
cost	-14532
enkt	-14533
fang	-14534
spez	-14535
yard	-14536
▁125	-14537
▁loy	-14538
▁yog	-14539
adays	-14540
cohol	-14541
ettel	-14542
field	-14543
schir	-14544
teils	-14545
werks	-14546
▁balk	-14547
▁brid	-14548
▁cher	-14549
▁dave	-14550
▁flut	-14551
▁gear	-14552
▁gött	-14553
▁güte	-14554
▁laug	-14555
▁meal	-14556
▁odds	-14557
▁pest	-14558
▁rope	-14559
gänger	-14560
jenige	-14561
violet	-14562
zähler	-14563
▁album	-14564
▁autob	-14565
▁cockt	-14566
▁dough	-14567
▁heter	-14568
▁jamie	-14569
▁keith	-14570
▁länge	-14571
▁misst	-14572
▁mixed	-14573
▁nadel	-14574
▁paten	-14575
▁relev	-14576
▁shore	-14577
▁steam	-14578
▁swiss	-14579
▁unpre	-14580
▁wheat	-14581
▁zweie	-14582
ication	-14583
powered	-14584
saharan	-14585
verkehr	-14586
wirkung	-14587
▁blasen	-14588
▁carpet	-14589
▁ensure	-14590
▁gordon	-14591
▁immers	-14592
▁merely	-14593
▁multip	-14594
▁perpet	-14595
▁psycho	-14596
▁sowjet	-14597
▁spiels	-14598
▁summar	-14599
▁trains	-14600
▁winkel	-14601
▁zipcar	-14602
▁zufäll	-14603
fficient	-14604
ifiziert	-14605
reichend	-14606
ächtigen	-14607
▁alcohol	-14608
▁amateur	-14609
▁bewegte	-14610
▁bezieht	-14611
▁blicken	-14612
▁distanz	-14613
▁effekte	-14614
▁fastest	-14615
▁heutige	-14616
▁korrekt	-14617
▁minimum	-14618
▁negativ	-14619
▁precise	-14620
▁rolling	-14621
▁russian	-14622
▁schwamm	-14623
▁spreads	-14624
▁staying	-14625
▁ubiquit	-14626
[...]
